<unk>	0
<s>	0
</s>	0
▁	-3.32844
.	-3.46895
..	-4.37747
이	-4.47385
▁영화	-4.59626
...	-4.61671
의	-4.73663
가	-4.7443
도	-4.78531
는	-4.86324
,	-4.91446
을	-5.01723
에	-5.10529
고	-5.17768
?	-5.24633
은	-5.24993
다	-5.27906
지	-5.33073
한	-5.48374
▁너무	-5.53102
를	-5.5373
!	-5.59564
만	-5.60889
▁정말	-5.66871
▁이	-5.67608
로	-5.71281
나	-5.78853
게	-5.86502
▁진짜	-5.86796
~	-5.9086
영화	-5.98482
과	-6.02468
기	-6.06807
라	-6.13245
어	-6.15243
으로	-6.16093
하고	-6.17816
인	-6.18955
서	-6.19918
네	-6.20368
점	-6.21287
리	-6.25441
▁잘	-6.28403
▁안	-6.28501
▁그	-6.28958
에서	-6.3401
아	-6.3544
▁왜	-6.35597
와	-6.35901
▁다	-6.36739
▁1	-6.38227
▁수	-6.40673
들	-6.41007
▁더	-6.41365
!!	-6.41578
▁아	-6.44192
▁이런	-6.45027
해	-6.45828
....	-6.45942
요	-6.45994
거	-6.49112
자	-6.53273
하는	-6.53737
▁그냥	-6.54278
네요	-6.60817
▁드라마	-6.63316
면	-6.64187
스	-6.65207
▁ᄏᄏ	-6.67234
니	-6.69227
▁10	-6.69371
대	-6.70069
▁본	-6.70093
▁보고	-6.71409
지만	-6.7328
야	-6.74493
수	-6.75174
시	-6.76311
▁연기	-6.76559
음	-6.76723
▁평점	-6.7694
사	-6.78847
일	-6.80662
▁한	-6.80815
▁영화를	-6.80869
▁좀	-6.81311
하	-6.81745
▁내	-6.82126
함	-6.82705
하게	-6.87308
이다	-6.88775
우	-6.9025
ᄏᄏ	-6.90279
진	-6.92519
▁참	-6.9268
▁쓰레기	-6.93099
▁봤는데	-6.94721
데	-6.94987
미	-6.95371
주	-6.9622
임	-6.96704
▁이거	-6.97771
하다	-6.98362
▁없는	-6.98538
여	-6.99061
드	-6.99118
▁영화는	-6.99941
▁최고의	-6.9996
구	-6.99967
▁영화가	-7.00332
▁못	-7.00815
▁ᄏᄏᄏ	-7.00957
▁개	-7.01015
▁내가	-7.01184
▁스토리	-7.01434
▁완전	-7.0217
▁2	-7.02179
▁이건	-7.02352
▁없다	-7.03065
할	-7.03211
보다	-7.03421
까지	-7.03797
▁최고	-7.03859
정	-7.03871
▁있는	-7.04308
는데	-7.05813
해서	-7.06983
안	-7.07297
▁좋은	-7.0751
들이	-7.0808
!!!	-7.08932
보	-7.09062
치	-7.09363
성	-7.09665
건	-7.12674
▁이렇게	-7.12778
▁3	-7.13311
중	-7.13367
듯	-7.13774
냐	-7.13829
▁보는	-7.14025
▁이게	-7.14648
▁나	-7.15401
▁보	-7.15419
상	-7.15557
신	-7.17664
▁다시	-7.17882
▁말	-7.17966
랑	-7.18224
▁난	-7.1835
ᄏ	-7.18408
전	-7.18516
▁것	-7.18936
적	-7.19814
^^	-7.22191
던	-7.22434
장	-7.22846
▁많이	-7.2471
부	-7.24825
마	-7.25448
▁지	-7.2656
보고	-7.26772
▁뭐	-7.26864
개	-7.26988
▁평점이	-7.28557
~~	-7.29372
▁넘	-7.30652
오	-7.3111
▁역시	-7.31819
1	-7.32023
려	-7.32418
세	-7.33342
▁저	-7.33593
인데	-7.34545
질	-7.34665
??	-7.34711
▁작품	-7.35248
▁오	-7.35562
▁그리고	-7.3621
그	-7.36379
분	-7.36385
▁또	-7.36399
▁재밌게	-7.36919
년	-7.37926
트	-7.38202
때	-7.38699
ᄏᄏᄏ	-7.39072
▁볼	-7.39495
▁전	-7.39854
비	-7.39862
;;	-7.39921
2	-7.40948
▁마지막	-7.42091
▁하	-7.42188
▁별로	-7.43091
것	-7.43304
▁재미	-7.43477
했다	-7.43508
화	-7.43563
▁생각	-7.43667
소	-7.44182
▁하는	-7.44278
'	-7.45217
내	-7.46066
▁주	-7.46299
원	-7.46301
말	-7.46657
히	-7.46927
라고	-7.4698
적인	-7.47135
진짜	-7.4788
용	-7.48629
▁꼭	-7.49733
급	-7.49737
▁감동	-7.50081
입니다	-7.50367
▁아깝다	-7.50743
같은	-7.51115
하지	-7.51769
▁ᄏᄏᄏᄏ	-7.51789
▁가장	-7.52272
▁없고	-7.52507
물	-7.53182
습니다	-7.538
▁하나	-7.53806
▁시간	-7.54986
▁아니	-7.55032
▁무슨	-7.55034
걸	-7.55709
무	-7.55768
제	-7.56286
▁감독	-7.56419
란	-7.56486
)	-7.56649
▁별	-7.56953
더	-7.56998
ᅲᅲ	-7.57381
▁기대	-7.57434
▁이야기	-7.57953
▁무	-7.58283
좀	-7.58489
▁지금	-7.59326
▁보면	-7.59495
러	-7.59831
▁사	-7.60476
▁ᄏ	-7.60598
된	-7.6136
▁다른	-7.6154
있는	-7.6196
씨	-7.63405
선	-7.63598
▁액션	-7.63802
▁만든	-7.64156
▁중	-7.64377
이나	-7.64404
▁조	-7.64572
호	-7.64711
너무	-7.65177
조	-7.65253
▁할	-7.65832
▁미	-7.66231
3	-7.66848
드라마	-7.67234
▁한국	-7.6738
식	-7.67711
영	-7.67912
라는	-7.68023
;	-7.68309
▁대	-7.68433
본	-7.68792
▁비	-7.68901
동	-7.68935
감	-7.69027
없는	-7.69061
편	-7.69638
줄	-7.69849
▁ᅲᅲ	-7.69879
▁사랑	-7.70637
▁마	-7.70668
부터	-7.70811
▁와	-7.71281
당	-7.714
유	-7.71609
긴	-7.71921
군	-7.73051
▁말이	-7.73099
▁정	-7.73463
정말	-7.74022
ᅲ	-7.74045
▁명작	-7.74305
심	-7.74422
명	-7.74577
▁처음	-7.74836
▁같은	-7.75056
연	-7.75157
어요	-7.75165
디	-7.75167
에게	-7.75212
▁거	-7.75261
남	-7.75624
울	-7.76231
▁일	-7.76466
작	-7.76771
▁영화다	-7.76963
▁유	-7.77199
▁김	-7.77223
살	-7.78097
난	-7.78121
워	-7.78224
▁연출	-7.78236
▁'	-7.78551
▁끝까지	-7.7861
린	-7.78622
처럼	-7.78756
▁내용	-7.78846
▁돈	-7.79122
모	-7.79299
▁배우	-7.79345
▁느낌	-7.79754
▁두	-7.79877
▁어	-7.80154
▁ᅳᅳ	-7.80262
래	-7.80456
준	-7.80999
단	-7.81224
들의	-7.81833
르	-7.82006
▁때	-7.82465
바	-7.82487
두	-7.82627
한다	-7.8266
크	-7.82782
위	-7.829
▁기	-7.83328
(	-7.83432
▁솔직히	-7.83809
▁전혀	-7.84114
인지	-7.84507
노	-7.84542
▁짱	-7.84543
운	-7.84718
으면	-7.8524
생	-7.85758
▁뭔가	-7.85838
▁하지만	-7.8584
▁좋다	-7.86083
루	-7.87307
▁같다	-7.87309
▁알	-7.87352
▁해	-7.8756
▁대한	-7.8771
▁있다	-7.87855
님	-7.88052
ᅳᅳ	-7.88162
되는	-7.88218
▁아주	-7.88246
이랑	-7.88262
합니다	-7.8827
경	-7.88301
▁제	-7.88771
▁ᄒᄒ	-7.88881
▁재밌다	-7.88935
▁자	-7.89881
▁구	-7.90144
▁봤다	-7.90165
며	-7.9037
면서	-7.90428
간	-7.90535
타	-7.90645
잘	-7.90746
레	-7.9076
재	-7.91703
▁굿	-7.91775
▁사람	-7.92089
죠	-7.92164
하면	-7.92571
▁봐도	-7.93002
▁남	-7.93311
류	-7.93727
저	-7.93795
▁많은	-7.94035
때문에	-7.9419
▁좋아	-7.94523
인가	-7.94546
▁일본	-7.94811
▁시	-7.95031
이라	-7.9504
▁소	-7.95542
희	-7.95594
▁최악	-7.96069
하지만	-7.96176
길	-7.96451
▁여자	-7.96537
▁모두	-7.96538
날	-7.96603
방	-7.97443
▁이걸	-7.97581
▁어떻게	-7.97881
,,	-7.97968
▁후	-7.98008
▁그런	-7.98018
▁재미있게	-7.98103
▁계속	-7.98113
박	-7.98215
었다	-7.98278
▁애	-7.98496
▁ᄏᄏᄏᄏᄏ	-7.98538
없이	-7.9871
-	-7.98794
▁대박	-7.9888
▁내내	-7.99173
▁나오는	-7.99238
▁4	-7.99299
▁줄	-7.9997
▁내용이	-8.00552
파	-8.00866
▁코미디	-8.00869
▁보기	-8.00915
▁부	-8.00916
▁않고	-8.01105
▁아니라	-8.01289
연기	-8.01488
ᄏᄏᄏᄏ	-8.01946
피	-8.02053
▁반	-8.02138
들은	-8.02367
엔	-8.02422
▁최악의	-8.02544
▁배우들	-8.02936
▁이영화	-8.03021
프	-8.03246
▁아닌	-8.03533
발	-8.03782
번	-8.04364
한테	-8.04644
▁모든	-8.04845
하나	-8.04897
▁5	-8.04907
구나	-8.05206
▁한번	-8.05257
▁신	-8.0526
했던	-8.05261
/	-8.0528
민	-8.05732
▁그래도	-8.05818
지는	-8.05982
차	-8.0631
되	-8.06491
▁이상	-8.06828
형	-8.07071
시간	-8.07071
▁주인공	-8.07409
▁되	-8.07653
국	-8.07706
▁실망	-8.07952
▁하고	-8.08358
▁재미없다	-8.08743
든	-8.08753
애	-8.08944
▁딱	-8.08995
▁근데	-8.09072
판	-8.09141
▁남자	-8.09488
▁우리	-8.09497
▁아니다	-8.10178
▁이제	-8.10251
하네	-8.10869
점도	-8.10923
▁7	-8.11464
이라는	-8.11479
겨	-8.11548
림	-8.11672
▁듯	-8.11702
▁제일	-8.11846
키	-8.11902
▁연기가	-8.12373
▁아름다운	-8.12457
봤는데	-8.12582
▁모	-8.12772
반	-8.12828
▁이해	-8.13005
▁욕	-8.13159
없다	-8.13174
▁장	-8.13248
까	-8.13296
▁만드는	-8.13925
▁스	-8.14306
지도	-8.14443
10	-8.14518
▁공포	-8.15403
터	-8.15476
▁않은	-8.15525
▁전개	-8.15555
즈	-8.15806
▁바	-8.16171
▁개봉	-8.1647
▁8	-8.16634
▁박	-8.1681
▁감독이	-8.16906
ᄒᄒ	-8.17079
▁스릴러	-8.17392
ᄒ	-8.17644
산	-8.17673
▁연기도	-8.17957
▁나는	-8.17968
망	-8.1797
▁건	-8.17993
▁않는	-8.18073
이고	-8.18096
▁강	-8.18101
▁음악	-8.18304
현	-8.18361
▁제대로	-8.18384
▁수준	-8.18426
하네요	-8.18472
후	-8.18754
니까	-8.18871
카	-8.18912
▁요즘	-8.18952
못	-8.18976
실	-8.19113
▁절대	-8.192
▁보다가	-8.19425
따	-8.19907
▁장면	-8.19931
▁불	-8.1995
이란	-8.20063
배	-8.20166
공	-8.20167
▁스토리가	-8.20367
▁내용도	-8.20456
▁만들어	-8.20843
보면	-8.21076
▁추천	-8.2115
버	-8.21151
적으로	-8.21171
▁우	-8.21765
문	-8.21984
▁속	-8.2213
관	-8.22134
▁보다	-8.22154
▁아니고	-8.22241
▁오늘	-8.22248
♥	-8.22313
하기	-8.22362
생각	-8.22657
▁9	-8.22812
▁애니	-8.22816
~~~	-8.22983
태	-8.23476
▁OO	-8.23503
▁0	-8.23557
다니	-8.23634
회	-8.23639
달	-8.23657
토	-8.23682
▁기억	-8.23709
▁막장	-8.23803
매	-8.23884
▁걸	-8.24095
들을	-8.24123
▁반전	-8.24356
▁싶다	-8.24922
점이	-8.24924
▁배	-8.25043
▁파	-8.25075
o	-8.2515
▁인생	-8.25384
!!!!	-8.25389
보는	-8.25538
티	-8.25541
▁눈	-8.26194
▁시간이	-8.26371
왜	-8.27116
▁영화라고	-8.2722
▁아직도	-8.27242
▁표현	-8.27406
▁ᄏᄏᄏᄏᄏᄏ	-8.27554
져	-8.2768
5	-8.27838
짱	-8.2788
▁때문에	-8.27923
▁영화의	-8.28097
년대	-8.28236
▁심	-8.28287
▁엄청	-8.28411
다가	-8.28699
종	-8.28886
속	-8.28928
ᅳ	-8.29281
4	-8.29299
???	-8.29363
▁세	-8.29527
▁여운이	-8.29534
▁아까운	-8.29714
▁피	-8.29807
▁주는	-8.29923
▁차라리	-8.30001
▁걍	-8.30062
포	-8.30224
했는데	-8.30316
""""	-8.30363
겠다	-8.30452
라도	-8.31019
▁나름	-8.31154
▁나도	-8.31172
▁재미도	-8.31271
으	-8.31345
는거	-8.31664
▁나온	-8.3175
▁재밌어요	-8.3188
▁울	-8.32186
▁원	-8.32271
▁좋았다	-8.32341
극	-8.32418
▁특히	-8.32813
▁영화입니다	-8.32874
▁몇	-8.32931
▁진심	-8.33135
▁되는	-8.33144
이라고	-8.33174
해요	-8.33195
▁도대체	-8.33223
참	-8.33276
▁조금	-8.33358
▁보면서	-8.33468
코	-8.33656
▁남는	-8.33679
금	-8.33991
▁눈물	-8.34382
▁노	-8.34772
정도	-8.34786
▁진	-8.35004
▁스토리도	-8.35061
▁오랜만에	-8.3507
▁우리나라	-8.35198
▁영	-8.35305
▁대사	-8.35401
점은	-8.35479
▁ᄏᄏᄏᄏᄏᄏᄏ	-8.35602
ᅮᅮ	-8.35938
평점	-8.36224
뿐	-8.36227
역	-8.36229
▁감독의	-8.36249
▁공감	-8.36301
계	-8.36377
인듯	-8.36465
▁캐릭터	-8.36825
체	-8.36851
▁마지막에	-8.36875
력	-8.36965
▁멋진	-8.37176
볼	-8.37358
죽	-8.37381
였다	-8.37656
▁공포영화	-8.38219
;;;	-8.38242
▁뻔한	-8.38257
것도	-8.38272
▁재	-8.3839
어서	-8.38392
▁이해가	-8.38393
▁동	-8.38404
집	-8.3857
릴	-8.3866
▁없음	-8.38963
▁결말	-8.39142
녀	-8.39469
▁좋아하는	-8.39638
▁막	-8.39705
해도	-8.39738
▁시작	-8.39747
▁발	-8.39824
는게	-8.39835
▁봤습니다	-8.4002
밖에	-8.40293
▁시리즈	-8.40456
석	-8.40589
▁공	-8.40605
▁20	-8.40722
▁사람들	-8.40808
▁좋고	-8.40866
▁망	-8.40915
려고	-8.40939
스토리	-8.41079
등	-8.41082
쳐	-8.41084
넘	-8.41199
▁어떤	-8.41442
▁B	-8.41549
예	-8.41585
▁생각이	-8.41658
없	-8.41701
던데	-8.41724
▁초	-8.41806
▁봤던	-8.42024
▁ᅲ	-8.42061
▁수작	-8.42148
▁뭔	-8.42181
▁연	-8.4219
사람	-8.42192
양	-8.42512
건지	-8.4263
이런	-8.43095
더라	-8.43126
만큼	-8.43198
▁OOO	-8.43211
▁예	-8.43221
움	-8.43222
▁지루하고	-8.43275
배우	-8.43445
▁끝	-8.43502
▁지루한	-8.4354
있다	-8.43564
▁노래	-8.43678
▁지루함	-8.43727
▁뭘	-8.43889
탄	-8.44061
▁재미가	-8.4421
▁미국	-8.44261
▁재밌	-8.44365
▁싶은	-8.44372
▁영화에	-8.445
▁가슴	-8.44718
장면	-8.44779
▁쓰	-8.44782
▁될	-8.45028
불	-8.45261
▁기분	-8.45316
▁큰	-8.45389
봤다	-8.45463
그냥	-8.45673
▁원작	-8.45846
▁재밌는	-8.45846
▁함께	-8.46044
▁사람이	-8.46074
▁인간	-8.46205
머	-8.46323
d	-8.464
7	-8.46504
▁그저	-8.46506
돈	-8.46704
▁날	-8.4713
▁^^	-8.47162
t	-8.47197
▁없	-8.47289
중에	-8.47369
e	-8.47434
▁영상	-8.4745
는지	-8.47505
▁괜찮은	-8.47536
▁된	-8.47581
론	-8.47629
▁없이	-8.47672
꺼	-8.47673
▁제목	-8.47773
▁졸작	-8.47795
▁않	-8.47799
▁최고다	-8.47816
▁배우들의	-8.47838
▁여	-8.48039
▁머	-8.48088
하며	-8.48134
▁개인적으로	-8.48407
김	-8.48778
▁얼마나	-8.48935
담	-8.48937
었는데	-8.48977
▁알바	-8.49206
▁보는내내	-8.49583
병	-8.49586
▁정도	-8.49965
있	-8.49971
▁애니메이션	-8.50015
▁못한	-8.50168
▁인	-8.50226
▁매	-8.50611
▁허	-8.50869
8	-8.50873
설	-8.50886
▁들	-8.50942
업	-8.51282
▁나오	-8.51292
잼	-8.51317
▁안되는	-8.51359
▁보세요	-8.51366
강	-8.51576
,,,	-8.51614
▁연기력	-8.51639
~!	-8.51676
격	-8.51721
▁몰입도	-8.51886
▁필요	-8.51907
▁아무리	-8.52053
▁성	-8.52174
▁캐스팅	-8.52365
갈	-8.5241
▁결국	-8.52629
▁소재	-8.52647
▁살	-8.528
대로	-8.52828
▁영화로	-8.53435
▁만들	-8.53448
스트	-8.53508
▁후회	-8.53701
사랑	-8.53849
블	-8.53997
능	-8.54318
▁지루하다	-8.54431
최고	-8.54577
▁기억에	-8.5462
▁"""	-8.54688
통	-8.55011
▁현실	-8.55175
감동	-8.55213
교	-8.55219
이네	-8.55366
▁시나리오	-8.55371
초	-8.55372
하면서	-8.55447
했	-8.55556
너	-8.55592
▁졸	-8.55641
▁ᄏᄏᄏᄏᄏᄏᄏᄏ	-8.55969
감독	-8.55976
입	-8.56162
▁6	-8.56292
▁같이	-8.56333
잡	-8.56338
절	-8.56433
▁그렇게	-8.56596
▁제발	-8.56627
봐	-8.56787
▁매우	-8.56838
a	-8.57077
▁화	-8.57335
s	-8.5734
▁선	-8.57402
구만	-8.57462
악	-8.57515
했음	-8.57756
투	-8.57873
▁연기는	-8.58086
▁만화	-8.58168
▁평	-8.58184
증	-8.58358
▁사실	-8.58498
작품	-8.58544
▁명	-8.58624
▁아이	-8.58722
6	-8.59492
슨	-8.59589
리는	-8.59641
▁맞	-8.59765
봐도	-8.59782
기에	-8.59806
먹	-8.60433
▁가족	-8.60477
▁차	-8.60772
▁ᄒ	-8.60955
▁좋아요	-8.61016
주는	-8.61103
케	-8.6118
ᄋ	-8.61206
이지만	-8.61565
▁단	-8.61634
학	-8.61718
맨	-8.6181
하는데	-8.61906
▁모르겠다	-8.61984
▁있	-8.62013
보단	-8.62152
▁것이	-8.62351
▁분위기	-8.62467
결	-8.62609
이었다	-8.6262
▁설정	-8.63107
▁코믹	-8.63147
액션	-8.63197
▁물	-8.6323
▁상	-8.63392
▁너	-8.63404
▁있고	-8.63458
봄	-8.63476
▁행복	-8.63537
▁강추	-8.63593
니다	-8.63855
된다	-8.63874
아니	-8.64182
나요	-8.64201
▁없어	-8.64257
▁입	-8.64326
권	-8.64375
▁누가	-8.6452
▁봤어요	-8.64603
▁하나도	-8.64685
▁위해	-8.64726
▁극장에서	-8.64801
쓰레기	-8.6484
▁""""	-8.64864
▁마음이	-8.64884
▁애들	-8.64895
▁보지	-8.64972
▁문제	-8.64995
글	-8.65054
이야	-8.65278
▁더빙	-8.6535
근	-8.65378
▁않는다	-8.65423
▁그만	-8.65518
▁위한	-8.65532
▁준	-8.65674
기는	-8.65766
▁들어	-8.6585
▁한국영화	-8.65937
▁별점	-8.6604
▁알고	-8.66064
새	-8.66225
▁억지	-8.66295
ᅮ	-8.66478
▁너무나	-8.66526
색	-8.66627
▁있을	-8.66678
창	-8.66702
▁긴장감	-8.67111
▁총	-8.67132
점을	-8.67134
▁한다	-8.67141
군요	-8.67178
▁토	-8.67525
▁미친	-8.67743
▁재밌음	-8.67899
▁정신	-8.67905
락	-8.68056
았	-8.6831
▁보게	-8.68883
기도	-8.68978
테	-8.69118
그리고	-8.69131
▁존나	-8.69149
온	-8.692
ᄏᄏᄏᄏᄏᄏᄏᄏᄏᄏᄏᄏᄏᄏᄏᄏ	-8.69508
잇	-8.6951
▁엔딩	-8.69717
▁최	-8.69723
이네요	-8.69753
▁잼	-8.69754
▁음	-8.70237
▁느낌이	-8.70313
보니	-8.70471
▁주연	-8.70554
▁죽	-8.70724
▁대체	-8.71039
재미	-8.71192
범	-8.71285
친	-8.71323
끼	-8.71553
뭐	-8.71558
해야	-8.71582
▁열	-8.71607
▁ᅮᅮ	-8.71783
▁모습	-8.71816
9	-8.71957
▁눈물이	-8.7198
버린	-8.72069
▁예술	-8.72364
건가	-8.72407
▁로맨스	-8.72753
▁위	-8.72764
▁손	-8.72962
▁내용은	-8.73056
▁훨씬	-8.73079
막	-8.73298
내용	-8.7351
거야	-8.73782
▁감동이	-8.73799
▁매력	-8.73895
▁타	-8.74123
을까	-8.74186
▁가슴이	-8.74344
▁유치	-8.74435
다고	-8.74503
언	-8.74514
쓰	-8.74565
▁장난	-8.74589
▁갈수록	-8.74594
▁그나마	-8.75016
이지	-8.75019
▁영화네요	-8.75151
▁엄마	-8.75355
수준	-8.75358
▁백	-8.75767
▁꽤	-8.7595
▁잡	-8.75959
난다	-8.75994
▁기억이	-8.76089
또	-8.76092
▁없었다	-8.76215
점대	-8.7633
▁그래서	-8.76337
▁그러	-8.76536
▁밖에	-8.76568
▁결말이	-8.76614
▁ᄏᄏᄏᄏᄏᄏᄏᄏᄏ	-8.76807
라서	-8.77062
뻔	-8.77087
▁전쟁	-8.77148
치는	-8.77221
▁출연	-8.77375
▁감	-8.77578
영화는	-8.77718
▁재미없음	-8.77735
▁어느	-8.77837
알	-8.77903
▁발연기	-8.77953
▁따라	-8.77958
▁찍	-8.78017
▁중국	-8.78329
▁마음	-8.78345
환	-8.78352
짐	-8.78358
에도	-8.78525
소리	-8.78539
천	-8.78595
▁봐야	-8.78597
▁똥	-8.78605
재밌	-8.78879
었어요	-8.78914
여자	-8.78989
▁약	-8.79195
인줄	-8.79245
▁구성	-8.79282
ᄏᄏᄏᄏᄏ	-8.79366
▁어설픈	-8.7953
▁보여주는	-8.79537
▁-	-8.79691
할때	-8.80031
+	-8.8004
▁다들	-8.80045
나는	-8.80058
었음	-8.80076
▁간	-8.8014
▁재밌고	-8.80166
▁적	-8.80282
▁극	-8.8039
▁연기를	-8.804
▁쓰레기영화	-8.80455
▁작가	-8.80517
플	-8.80663
▁다큐	-8.80795
▁않다	-8.80836
평	-8.80894
▁길	-8.81049
이상	-8.81087
▁노잼	-8.81185
직	-8.81224
▁딸	-8.8131
▁웃음	-8.81318
▁치	-8.81334
▁지루	-8.81468
▁찾아	-8.81519
칠	-8.81751
행	-8.81826
▁뿐	-8.81888
년이	-8.82015
완전	-8.82096
씬	-8.82192
▁CG	-8.82243
▁30	-8.82282
▁존	-8.82482
나오는	-8.82577
승	-8.82769
▁재미있다	-8.82884
▁메	-8.82964
짓	-8.83095
▁주고	-8.83171
▁시즌	-8.83376
기를	-8.83702
▁아쉽다	-8.83717
▁바로	-8.83813
▁걸작	-8.83844
▁영화중	-8.84055
될	-8.84088
각	-8.84156
▁상황	-8.84244
▁평가	-8.84251
>	-8.84331
▁아님	-8.84366
▁먹	-8.84404
▁간만에	-8.84445
▁ᄏᄏᄏᄏᄏᄏᄏᄏᄏᄏ	-8.84633
▁올	-8.84649
▁변	-8.84698
열	-8.84829
▁높	-8.84835
싶	-8.84839
었던	-8.84907
▁영화관에서	-8.8491
"""	-8.84921
▁코	-8.85062
록	-8.85069
느낌	-8.85222
▁의미	-8.85272
▁자기	-8.85325
라면	-8.85386
▁사람들이	-8.854
▁야	-8.85467
▁웃	-8.85806
슬	-8.85872
▁잔잔한	-8.85887
▁감동도	-8.86079
름	-8.86173
했지만	-8.86204
▁좋은데	-8.86351
이거	-8.86511
▁당	-8.86571
▁갈	-8.86589
▁얼굴	-8.86615
없고	-8.86709
할수	-8.86735
▁당시	-8.87159
됨	-8.87281
셨	-8.87302
이건	-8.87311
▁전부	-8.87317
▁실	-8.87366
습	-8.87537
웃	-8.87647
▁감동적인	-8.87683
▁같아요	-8.87726
▁영화였다	-8.87784
▁맘에	-8.87868
▁안되	-8.87907
이라도	-8.8797
▁재미없	-8.87975
▁것을	-8.87988
▁소리	-8.88115
영화를	-8.8841
께	-8.88436
거지	-8.8847
듯한	-8.88504
는건	-8.886
▁있을까	-8.88757
▁같은데	-8.88808
▁호	-8.89171
백	-8.89181
션	-8.89275
귀	-8.89276
침	-8.89323
수가	-8.89524
▁약간	-8.89696
▁대해	-8.89779
▁것도	-8.89809
▁재미있는	-8.89812
▁잼있	-8.89848
▁뭐야	-8.90041
▁생각보다	-8.90106
치고	-8.90139
▁상당히	-8.90164
▁생각을	-8.9018
것이	-8.90298
▁카	-8.90369
▁진정한	-8.90404
짜	-8.9052
▁여기	-8.90592
▁방송	-8.90742
▁웃기	-8.90833
겠지	-8.9092
베	-8.90985
월	-8.90988
커	-8.91004
향	-8.91027
▁자체	-8.912
눈	-8.912
▁그대로	-8.91584
▁배경	-8.91682
▁친구	-8.92102
낸	-8.92137
▁점수	-8.92186
▁준다	-8.92201
좋아	-8.92213
구요	-8.92319
빈	-8.92573
▁네이버	-8.92611
처	-8.92658
기만	-8.92732
느	-8.9277
▁중간에	-8.9277
을때	-8.92875
추	-8.92949
표	-8.92953
▁스토리는	-8.93019
▁계	-8.93043
였음	-8.93091
0	-8.93114
▁허접	-8.93162
햇	-8.93221
있고	-8.9326
▁거의	-8.93325
이야기	-8.93366
찍	-8.93435
▁감성	-8.93538
같이	-8.93552
g	-8.93773
▁힘들	-8.93821
순	-8.93825
▁배우들이	-8.93866
▁편	-8.93866
진다	-8.93866
았다	-8.93907
않	-8.93971
▁판타지	-8.94026
▁재미는	-8.94054
▁감동을	-8.94138
더니	-8.94187
▁높은	-8.94244
//	-8.94314
출	-8.94326
▁여주인공	-8.94359
퍼	-8.94403
▁천	-8.94669
른	-8.94682
▁살아	-8.9493
빠	-8.9497
▁충격	-8.94986
누	-8.94989
편이	-8.95044
▁혼자	-8.95048
▁머리	-8.95089
▁나와서	-8.95142
▁등	-8.95275
다는	-8.95342
▁했는데	-8.95363
곡	-8.95387
▁정도로	-8.95441
▁얘기	-8.95442
척	-8.95544
▁분	-8.95613
▁이름	-8.95623
▁좋	-8.95718
▁나왔	-8.95718
▁재미있어요	-8.9575
▁아무	-8.9579
▁성룡	-8.95796
♡	-8.95828
▁볼만한	-8.95964
곤	-8.95972
▁재미없는	-8.96027
혀	-8.96032
▁악	-8.96077
▁외	-8.96109
스러운	-8.96319
목	-8.96551
▁갑자기	-8.96715
▁누구	-8.96927
남자	-8.9697
▁있었	-8.97064
y	-8.97106
▁재밌네요	-8.9711
▁베	-8.97172
▁목	-8.97176
▁다음	-8.97177
없음	-8.97254
▁있지만	-8.97348
에선	-8.9735
광	-8.97354
외	-8.97465
▁봤지만	-8.97743
린다	-8.97776
▁뭐지	-8.97947
▁싸	-8.97952
련	-8.98138
레이	-8.98275
k	-8.98283
▁많	-8.98327
조차	-8.98354
혜	-8.98375
건데	-8.98475
▁생	-8.98525
r	-8.98706
▁양	-8.9881
▁추억	-8.98874
욕	-8.98911
▁장르	-8.9916
▁이영화를	-8.99225
▁된다	-8.99252
였	-8.99253
▁마음에	-8.99343
영화가	-8.99431
기대	-8.99451
해라	-8.99507
▁따	-8.9952
▁싶	-8.99619
▁줄거리	-8.99658
▁관	-8.99716
▁경	-8.9988
▁현	-8.99882
▁글	-8.99885
▁ᅳ	-8.99969
했습니다	-8.99996
▁봐서	-9.00053
▁아직	-9.00105
놓고	-9.00193
들도	-9.00264
▁오래	-9.0028
나오	-9.00328
b	-9.00398
한거	-9.00452
▁영화인데	-9.0054
▁왕	-9.00578
▁각본	-9.00632
▁끝나	-9.00639
h	-9.00741
▁제가	-9.00827
▁굉장히	-9.00834
으나	-9.00879
D	-9.00909
▁관객	-9.00995
▁보니	-9.01004
▁감정	-9.01105
▁제작	-9.01138
편은	-9.01349
왕	-9.01541
▁장면이	-9.01565
어야	-9.01602
▁저런	-9.0161
▁맛	-9.01618
▁있어서	-9.01625
채	-9.01629
▁재밋	-9.01675
▁순	-9.01689
▁어디서	-9.01772
▁예상	-9.01801
▁비교	-9.01853
앗	-9.01896
▁새로운	-9.01942
들에게	-9.02071
했어요	-9.02073
▁스릴	-9.02351
정도로	-9.0237
▁언제	-9.02401
▁뭐냐	-9.02402
▁일단	-9.02409
▁빨리	-9.02567
▁아버지	-9.02578
▁이딴	-9.02619
▁훌륭한	-9.02726
▁ᄏᄏᄏᄏᄏᄏᄏᄏᄏᄏᄏ	-9.0296
해지는	-9.03026
들어	-9.03058
▁방	-9.03087
▁번	-9.03093
▁추	-9.03108
▁나의	-9.03119
▁몸	-9.03125
근데	-9.0315
▁항상	-9.03248
▁만	-9.03273
i	-9.03553
▁화면	-9.03554
좋	-9.03626
▁극장판	-9.03668
▁버	-9.03668
▁잠	-9.0368
~!!	-9.03693
▁원작을	-9.03771
었	-9.04015
땜에	-9.04081
▁아이들	-9.04115
▁영화임	-9.0414
▁역	-9.04382
▁그리	-9.04492
되어	-9.04553
▁달	-9.04604
▁뒤	-9.04621
합	-9.04627
▁90	-9.04742
벌	-9.04763
슴	-9.0486
철	-9.05073
거나	-9.05092
▁힘	-9.05121
▁주제	-9.05424
간다	-9.05424
▁종	-9.05443
규	-9.0558
ᄉ	-9.05634
▁잘못	-9.05647
▁말도	-9.05706
▁평점을	-9.05733
주의	-9.05747
줘	-9.05825
▁감독님	-9.05977
리고	-9.0618
▁있어	-9.06279
▁팬	-9.06397
▁영상미	-9.06525
▁깨	-9.06536
▁대단한	-9.06553
▁저는	-9.0661
▁여배우	-9.06772
▁생각하게	-9.06828
땐	-9.06906
▁보여주	-9.06938
하냐	-9.07104
▁가는	-9.07121
▁성우	-9.07163
것같다	-9.07269
복	-9.073
▁형	-9.073
분들	-9.07319
허	-9.07414
▁사회	-9.07414
▁주인공이	-9.07442
청	-9.07536
▁포스터	-9.07538
적이	-9.076
길래	-9.07763
▁찾	-9.07794
▁나올	-9.07842
ᄀ	-9.07996
▁하지	-9.08052
▁좋은영화	-9.08084
돌	-9.08148
▁암	-9.08272
▁요	-9.08324
츠	-9.08367
▁게	-9.08367
▁흥행	-9.08377
▁꿀잼	-9.08492
듬	-9.08525
▁자체가	-9.08641
▁같	-9.08684
▁패	-9.08787
덕	-9.08788
▁못하는	-9.08835
▁크	-9.0892
▁윤	-9.09013
▁그런지	-9.0905
법	-9.09052
▁M	-9.09105
▁봐라	-9.09174
▁점점	-9.09197
잔	-9.09236
났	-9.09314
별	-9.0934
다시	-9.0947
n	-9.09517
▁봤음	-9.09527
였는데	-9.09534
마지막	-9.09588
▁그러나	-9.09645
별로	-9.09882
▁레	-9.10005
▁있는데	-9.10093
▁만들었	-9.10106
▁개연성	-9.10111
끝	-9.10125
▁비해	-9.10247
거다	-9.10282
으니	-9.10311
메	-9.10375
▁비디오	-9.10532
▁집중	-9.1059
_	-9.10648
▁처음부터	-9.10667
▁없어서	-9.1067
▁충분히	-9.10751
▁뭐가	-9.10971
존	-9.1122
▁가지고	-9.11273
년전	-9.11377
부분	-9.11431
▁순간	-9.11673
▁(	-9.11695
▁아까움	-9.11846
▁짜증	-9.11957
런	-9.12013
▁TV	-9.12032
이라면	-9.12078
▁세계	-9.12191
▁옛날	-9.12229
라니	-9.12233
▁않았	-9.12327
약	-9.12342
보기	-9.12389
▁100	-9.12507
처음	-9.12526
에는	-9.1255
▁사람은	-9.12769
▁삼	-9.12865
익	-9.12951
세요	-9.12957
▁나와	-9.1308
▁영화도	-9.13114
▁했다	-9.13164
시리즈	-9.13167
삼	-9.13256
쯤	-9.1335
▁만족	-9.13354
▁봄	-9.1336
▁궁금	-9.13387
▁안된다	-9.13454
▁이런영화	-9.13463
▁나이	-9.13473
도록	-9.13536
▁너무너무	-9.13622
▁만점	-9.13645
▁볼만	-9.13663
▁써	-9.13758
잖아	-9.13788
▁책	-9.1396
▁있었다	-9.1409
술	-9.1414
품	-9.14155
같다	-9.14212
▁작	-9.14265
지금	-9.14301
추천	-9.14317
기가	-9.14345
▁초딩	-9.14442
OO	-9.14543
▁포	-9.14615
▁쳐	-9.14647
▁몰입	-9.14798
립	-9.14848
ᄂ	-9.14855
▁삼류	-9.14873
다면	-9.14917
▁나온다	-9.14954
▁꿈	-9.14997
▁뻔	-9.15069
▁좋네요	-9.15155
놈	-9.15309
▁선택	-9.15366
▁돌	-9.15425
▁꼬	-9.15439
졌다	-9.1545
▁놀	-9.15467
▁부족	-9.15515
거냐	-9.15516
▁이미	-9.15549
▁여주	-9.15617
풍	-9.15836
▁실화	-9.15905
▁tv	-9.15978
하니	-9.15989
▁good	-9.15999
내가	-9.16026
주인공	-9.16101
랄	-9.16154
▁첨	-9.16176
▁목소리	-9.16196
▁귀	-9.16198
최악	-9.16253
▁더욱	-9.1644
배우들	-9.16454
링	-9.16765
▁완벽	-9.16808
이라니	-9.16827
▁부분	-9.17035
엇	-9.17112
▁산	-9.17254
▁재밌는데	-9.17259
▁멜로	-9.17336
적이고	-9.17435
튼	-9.17446
시대	-9.17451
▁이유	-9.17466
▁원래	-9.17485
겠지만	-9.17538
▁좋겠다	-9.1764
▁그닥	-9.17681
▁어디	-9.17705
▁시절	-9.17718
졌	-9.1777
거리	-9.17772
▁무조건	-9.17794
뜨	-9.17818
▁새	-9.17837
▁그때	-9.1793
▁까	-9.18098
했고	-9.1824
이냐	-9.18552
브	-9.18663
▁것은	-9.18754
효	-9.1877
▁과거	-9.18842
▁대단	-9.18845
▁하다	-9.18852
▁짜	-9.18902
▁재미있	-9.18952
▁도저히	-9.18983
마다	-9.1901
▁문	-9.19053
▁생각해	-9.19242
되고	-9.1936
▁한마디로	-9.19395
틀	-9.19427
▁참고	-9.19463
사람들	-9.19505
▁불륜	-9.19582
▁엄청난	-9.19601
▁어릴때	-9.19631
▁어색	-9.19658
▁헐	-9.19663
▁아닌가	-9.19672
▁두번	-9.19692
▁노력	-9.19696
▁망작	-9.19703
▁유치한	-9.19789
▁돌아	-9.19799
▁더럽게	-9.19865
▁지루해	-9.19878
먼	-9.19932
▁감동적이	-9.19946
▁편집	-9.19988
▁재밌었다	-9.20007
▁해서	-9.20024
▁슬픈	-9.20086
재미있	-9.20173
▁휴	-9.20202
념	-9.20209
▁예전에	-9.20359
에요	-9.20412
연출	-9.20482
▁다시봐도	-9.20519
나서	-9.20626
u	-9.20645
▁아쉬운	-9.2065
▁이영화는	-9.20659
▁전개가	-9.20802
전개	-9.20856
만한	-9.21054
찬	-9.2106
▁따뜻한	-9.2112
이에요	-9.21199
▁그게	-9.21202
라이	-9.21246
▁소설	-9.21376
:	-9.21409
▁지금까지	-9.21506
▁바보	-9.21842
▁낮은	-9.21862
윤	-9.21909
▁낫다	-9.21945
▁통	-9.22065
걸까	-9.2216
▁있음	-9.2219
▁이것도	-9.22239
▁지나	-9.22276
이게	-9.22298
▁질	-9.22301
▁첫	-9.22427
▁봐	-9.22442
▁없네	-9.22583
c	-9.22651
▁데	-9.22672
▁b	-9.22681
▁보는데	-9.22716
지고	-9.22765
▁댓글	-9.22865
지않	-9.22867
▁80	-9.23052
하여	-9.2311
▁없을	-9.23121
싸	-9.23124
▁모르고	-9.23178
특	-9.23312
독	-9.23435
▁자꾸	-9.23442
나라	-9.23461
▁봤네요	-9.23517
보다는	-9.23532
▁돈주고	-9.2354
▁흠	-9.2357
봐라	-9.23662
대박	-9.23684
▁아빠	-9.23721
▁존재	-9.23761
봐서	-9.23771
00	-9.23821
꼬	-9.23996
▁설	-9.23996
▁감독은	-9.24015
▁ᄍᄍ	-9.24094
료	-9.24143
롭	-9.24247
아서	-9.24306
성이	-9.24321
▁인물	-9.24459
▁사랑을	-9.2454
-_-	-9.24575
올	-9.24581
만들	-9.24598
▁결혼	-9.24628
▁물론	-9.24796
▁재미없어	-9.24842
페	-9.25049
▁모르는	-9.25079
▁클	-9.25096
변	-9.25157
▁교	-9.25217
하던	-9.2527
▁평점은	-9.25278
쉬	-9.25323
▁키	-9.25366
▁힘든	-9.25373
놈들	-9.25375
억	-9.25379
▁설명	-9.25479
▁사람들은	-9.25495
▁알게	-9.2564
책	-9.25719
▁어린	-9.25738
▁역사	-9.25766
▁복수	-9.25859
리가	-9.25907
p	-9.26042
음악	-9.26044
▁죽음	-9.26146
▁합니다	-9.26223
▁초반	-9.26305
굿	-9.26389
완	-9.26428
많	-9.26502
였던	-9.26535
그래도	-9.26551
▁그래픽	-9.26596
▁완벽한	-9.2669
명작	-9.26719
킹	-9.26773
▁전형적인	-9.26774
년도	-9.26898
탈	-9.26926
하는거	-9.26937
▁쓴	-9.26942
맛	-9.26984
몰	-9.26988
C	-9.27036
▁늘	-9.27086
▁인정	-9.27099
▁괜히	-9.2725
년에	-9.27294
▁만나	-9.27309
본다	-9.27427
▁미화	-9.27498
▁귀신	-9.27545
▁재밌어	-9.27559
▁저질	-9.27726
▁여성	-9.27778
▁느낄	-9.27916
▁나라	-9.27924
아이	-9.2794
들과	-9.27979
▁신기	-9.28134
족	-9.28163
좋은	-9.2818
▁온	-9.28248
▁이리	-9.28268
▁반전이	-9.28279
▁상상	-9.28329
▁담	-9.28357
▁오히려	-9.2848
함을	-9.28649
▁느끼게	-9.28743
▁예고편	-9.28916
을듯	-9.28975
▁알았다	-9.29037
▁웃긴	-9.29037
▁연출이	-9.2909
▁억지로	-9.29092
많이	-9.29169
패	-9.29182
하세요	-9.29255
▁병맛	-9.29298
▁없네요	-9.29319
▁있다는	-9.29468
▁이정도	-9.29483
▁무서운	-9.29612
혹	-9.29619
▁부족한	-9.29643
▁뭔지	-9.29755
이면	-9.30024
모르	-9.30095
보는데	-9.3029
▁트	-9.3045
그런	-9.30498
▁되어	-9.30528
▁좋음	-9.30532
써	-9.30561
점짜리	-9.30608
징	-9.30608
▁SF	-9.3064
▁일본영화	-9.30741
▁만들지	-9.30822
훈	-9.3084
짝	-9.31004
한데	-9.31005
▁우연히	-9.31095
스럽다	-9.31098
▁현재	-9.3113
주세요	-9.31158
~~~~	-9.31222
▁완성도	-9.31271
는걸	-9.31417
▁믿고	-9.31442
▁진행	-9.31455
춘	-9.31475
▁이야기를	-9.31575
▁평점에	-9.31767
겠	-9.31803
▁이러	-9.31821
▁대한민국	-9.31835
▁인간의	-9.31842
▁별루	-9.31873
f	-9.31879
▁먹먹	-9.31895
한번	-9.31898
▁연출력	-9.31998
만으로도	-9.3201
▁영화라	-9.3208
▁좋았어요	-9.32119
▁기대하고	-9.32278
▁황	-9.32286
m	-9.32332
끔	-9.32368
▁세상	-9.32406
▁스타일	-9.32468
▁떠	-9.32474
려서	-9.32521
▁아무것도	-9.32646
▁서로	-9.32686
▁돈이	-9.32691
▁대작	-9.32752
인거	-9.32817
일까	-9.32849
방송	-9.32875
답	-9.32879
▁진실	-9.32935
▁비슷한	-9.33057
▁화이팅	-9.33253
▁이상한	-9.33383
▁/	-9.33404
▁앞으로	-9.33684
여서	-9.33687
숙	-9.33767
▁볼수	-9.33804
겟	-9.33889
맞	-9.33914
좋다	-9.33931
▁드	-9.33984
▁확	-9.34077
▁개그	-9.34146
힌	-9.34201
▁굳	-9.34245
영화다	-9.34287
강추	-9.34294
▁가치	-9.34307
▁처음으로	-9.34346
▁킬링타임용	-9.3448
▁좀비	-9.34559
▁배우가	-9.34607
▁작품성	-9.34665
딱	-9.34715
▁프랑스	-9.34746
^	-9.34751
▁액션도	-9.34843
▁했	-9.34863
▁ᄏᄏᄏᄏᄏᄏᄏᄏᄏᄏᄏᄏᄏ	-9.3506
E	-9.35112
하긴	-9.35162
말이	-9.35256
봐야	-9.35334
전에	-9.35361
▁태	-9.35363
도없고	-9.35392
▁바람	-9.35394
▁감사	-9.35403
렸다	-9.3541
아닌	-9.3545
▁ᄏᄏᄏᄏᄏᄏᄏᄏᄏᄏᄏᄏ	-9.35495
재밋	-9.35507
▁듯한	-9.35517
▁식	-9.35568
속에	-9.35624
십	-9.35666
더군요	-9.35755
▁특유의	-9.35782
▁재미있고	-9.3588
▁낮	-9.35961
▁ost	-9.35977
쁘	-9.36052
에겐	-9.36106
▁골	-9.36119
드는	-9.36151
▁왜이리	-9.36186
▁성장	-9.36206
함이	-9.36212
▁유머	-9.36331
팬	-9.36405
▁이런거	-9.36489
는것	-9.36504
▁이런걸	-9.36541
▁ᄒᄒᄒ	-9.36572
성을	-9.36573
▁알았는데	-9.36595
▁여운	-9.3662
지루	-9.36653
................	-9.3671
보이	-9.36753
▁지금도	-9.36812
▁천재	-9.36815
▁않을	-9.36845
▁만드	-9.36855
▁이번	-9.36874
역시	-9.36885
됐	-9.36885
▁저도	-9.36954
▁말고	-9.37038
▁대단하다	-9.37063
▁코메디	-9.3707
▁모습이	-9.37097
▁이후	-9.37153
자가	-9.37191
▁것이다	-9.37331
▁흥미	-9.3734
▁졸라	-9.374
으며	-9.37427
▁흥미진진	-9.3744
▁ᄃᄃ	-9.37453
▁빠	-9.37472
분이	-9.37476
아깝다	-9.3749
▁수가	-9.37513
▁아이들이	-9.37553
B	-9.37624
▁지루하지	-9.37665
재미없	-9.37707
▁전작	-9.37714
▁마무리	-9.37731
셔	-9.37863
▁청춘	-9.37893
????	-9.37955
▁해도	-9.37985
▁집	-9.38077
럽	-9.38086
▁복	-9.38099
겠네	-9.38197
렌	-9.38368
한영화	-9.38426
▁게임	-9.3847
▁어렸을때	-9.38523
무슨	-9.3872
▁유치하고	-9.38771
얼	-9.39015
▁교훈	-9.39139
가서	-9.39191
▁액션영화	-9.39197
보다가	-9.39228
앙	-9.39294
▁그래	-9.39305
▁멋있	-9.39333
▁않았다	-9.39343
▁비추	-9.3957
▁이것	-9.39594
시켜	-9.39607
▁둘	-9.39774
▁만들었다	-9.398
▁지난	-9.39804
▁프로	-9.39813
▁숨	-9.3982
▁광	-9.39899
▁재미없고	-9.39907
났다	-9.39941
닥	-9.40018
풀	-9.40079
웃음	-9.40239
&	-9.40278
보면서	-9.40289
▁리	-9.40314
▁알아	-9.40325
▁소름	-9.40331
▁영화보다	-9.40351
반전	-9.40368
▁겁나	-9.40457
네여	-9.40466
놓은	-9.40469
했을	-9.40478
▁눈이	-9.40509
어도	-9.40557
염	-9.40574
T	-9.40577
가족	-9.40652
▁몰	-9.40696
였습니다	-9.40697
▁명작이다	-9.40722
▁낚	-9.40754
빨	-9.40755
▁실제	-9.40758
▁시청률	-9.40785
받	-9.40889
▁맞는	-9.40957
만든	-9.40972
▁누	-9.41055
▁노출	-9.4106
같	-9.41221
것이다	-9.41245
해주는	-9.41252
▁않음	-9.41258
▁작품이	-9.41303
▁아쉽	-9.41311
▁본다	-9.41378
▁장면은	-9.41437
갑	-9.41524
밀	-9.41533
▁사랑이	-9.41541
▁빠져	-9.41596
▁ᄉᄇ	-9.41635
▁괴	-9.41668
량	-9.41706
▁안보	-9.41749
▁속편	-9.41865
▁급	-9.41892
야지	-9.41898
▁먼저	-9.41916
▁시대	-9.4214
%	-9.42149
축	-9.42211
▁화려한	-9.42225
▁홍	-9.42233
▁어찌	-9.42269
▁또한	-9.42565
▁보여	-9.42632
애니	-9.42638
▁하면	-9.4264
▁아니지만	-9.42683
▁최악이다	-9.42698
▁그렇고	-9.42717
▁귀여운	-9.42736
수록	-9.42772
▁알았	-9.42788
▁진부한	-9.42897
▁터	-9.43011
준다	-9.43151
▁아닐까	-9.43175
▁받	-9.43231
▁성공	-9.43291
리스	-9.43338
▁시간낭비	-9.43344
▁지루하	-9.43345
▁창	-9.43358
▁사건	-9.43408
▁관람	-9.43425
▁왠지	-9.43472
득	-9.43667
▁커	-9.43692
▁관계	-9.43703
x	-9.43709
▁남주	-9.43727
▁행동	-9.43744
점준다	-9.43751
▁좋았습니다	-9.43753
▁재밌었어요	-9.43787
든다	-9.43927
친구	-9.4398
령	-9.44029
ᅲᅲᅲ	-9.44098
작가	-9.44202
▁분명	-9.4424
▁내인생	-9.44293
을텐데	-9.44312
▁금	-9.44342
▁짜증나	-9.44396
쪽	-9.44419
▁군대	-9.44514
;;;;	-9.44523
▁떠나	-9.44565
면서도	-9.44603
하는게	-9.4466
손	-9.44679
@	-9.44684
순간	-9.44779
▁삶	-9.44826
영화중	-9.44893
▁C	-9.44893
사람이	-9.44988
▁좋았고	-9.45098
▁취	-9.45109
견	-9.45122
있게	-9.45128
▁나만	-9.4514
잉	-9.45205
▁디	-9.45207
▁전체적으로	-9.45235
딩	-9.4535
▁자유	-9.45458
것은	-9.45463
▁없었	-9.45578
▁보이는	-9.45718
꼭	-9.45731
▁용	-9.45772
오는	-9.45797
모습	-9.45803
▁신선	-9.45804
했으면	-9.45905
▁끝내	-9.46008
v	-9.46059
이렇게	-9.46076
▁감상	-9.4612
지마	-9.46135
졸	-9.46185
▁마음을	-9.46192
▁경찰	-9.46266
시키	-9.46276
▁마치	-9.46319
▁같습니다	-9.46404
▁보여준	-9.4641
▁떨	-9.46412
▁잘봤습니다	-9.46489
했는지	-9.46496
▁맥	-9.46505
▁생각한다	-9.4657
걸로	-9.46575
▁나쁜	-9.46611
▁심리	-9.4674
▁하임이	-9.46774
S	-9.46784
▁그녀	-9.46789
실망	-9.46835
▁스토리에	-9.46848
인이	-9.4688
황	-9.4692
▁이쁘	-9.46934
▁아들	-9.4695
▁중에	-9.47067
려는	-9.47098
시는	-9.47121
▁한계	-9.4713
▁그런데	-9.47148
휴	-9.47174
▁각	-9.47196
▁대충	-9.47207
▁느끼	-9.47216
되지	-9.47234
거임	-9.47236
▁무엇보다	-9.47319
▁영화였습니다	-9.47321
와서	-9.47358
l	-9.4741
▁삶을	-9.47438
▁처	-9.47491
필	-9.47502
▁황당	-9.47503
▁허접한	-9.47541
▁너무나도	-9.47724
뿌	-9.47781
▁상상력	-9.47926
▁보고나서	-9.48
▁살인	-9.4801
▁투	-9.48054
있어	-9.48064
▁극장	-9.4808
▁싫어	-9.48178
▁주인공들	-9.482
인간	-9.48206
버렸다	-9.48268
▁어이없	-9.48338
취	-9.48386
하자	-9.48404
▁감사합니다	-9.48431
▁이어	-9.48516
20	-9.48543
▁이젠	-9.48552
▁범죄	-9.48655
▁읽	-9.48728
이제	-9.48741
▁깊은	-9.48826
▁깊이	-9.48826
▁일상	-9.4892
빵	-9.48934
ᄏᄏᄏᄏᄏᄏ	-9.48976
▁자연	-9.49046
▁한편	-9.49079
▁소재는	-9.49288
싱	-9.49346
▁못하고	-9.49348
ᄅ	-9.49352
특히	-9.49465
▁지금봐도	-9.49478
마음	-9.49514
▁표	-9.4953
씩	-9.49578
▁로맨틱	-9.49874
ᄆ	-9.49881
갔	-9.49902
▁저렇게	-9.49929
다른	-9.50026
노잼	-9.50041
▁벌	-9.50197
▁영화에서	-9.5022
▁넣	-9.50288
▁다소	-9.50309
▁함	-9.50314
거같다	-9.50421
▁세상에	-9.50426
▁영화중에	-9.50436
▁확실히	-9.50442
▁고민	-9.50498
▁드라마를	-9.50542
▁나에게	-9.5055
w	-9.50586
에서는	-9.50591
▁인상적	-9.50631
▁12	-9.50688
그러	-9.50704
낮	-9.50707
▁상영	-9.50733
▁자신의	-9.50768
없어	-9.50776
▁아오	-9.50807
▁A	-9.50855
▁국	-9.50899
▁하는데	-9.50998
▁액션이	-9.51018
▁카메라	-9.51076
송	-9.51086
찌	-9.51093
팔	-9.51163
▁영웅	-9.51173
재밌게	-9.51179
▁으	-9.51192
▁어이없는	-9.51211
▁자신	-9.51446
▁독	-9.51529
▁좋았는데	-9.51556
최	-9.51652
=	-9.51697
▁절	-9.51928
▁낭비	-9.51955
들아	-9.5202
▁있었던	-9.52091
▁어색한	-9.52161
▁매력적인	-9.52173
▁사이	-9.5221
▁여자들	-9.52216
던가	-9.52258
쇼	-9.52264
▁촬영	-9.52413
로운	-9.52469
스타	-9.52562
▁그랬	-9.52627
▁입니다	-9.52639
▁병	-9.52643
었지만	-9.52645
▁좋았음	-9.52662
끄	-9.52672
놓	-9.52701
▁왜이렇게	-9.52757
▁눈을	-9.52783
던지	-9.52881
르는	-9.52889
▁모습을	-9.52996
텐데	-9.53084
항	-9.53113
▁같네요	-9.53116
▁흐	-9.53141
예요	-9.53281
▁그런가	-9.53313
충	-9.53325
~^^	-9.53343
▁틀	-9.53361
코미디	-9.53393
▁이영화가	-9.53424
▁연애	-9.53436
▁팔	-9.53439
최고의	-9.53485
▁여자가	-9.53546
때마다	-9.53568
▁독립영화	-9.53576
▁리얼	-9.53578
▁답	-9.53648
껄	-9.53665
▁스케일	-9.53668
▁평론가	-9.53775
홍	-9.538
시간이	-9.53818
▁이야기가	-9.53843
드라	-9.53879
한듯	-9.53915
▁티	-9.53922
▁잘만든	-9.5395
보세요	-9.54013
▁믿	-9.54118
▁프로그램	-9.54226
▁불편	-9.54236
▁범인	-9.5425
▁유쾌한	-9.54266
▁해야	-9.54266
▁질질	-9.54271
▁인상	-9.54274
일뿐	-9.54285
고싶다	-9.54285
▁수준이	-9.543
ᄏᄏᄏᄏᄏᄏᄏ	-9.54357
▁이런게	-9.54403
스런	-9.54448
▁보이	-9.54546
나온	-9.54709
감이	-9.54776
봐요	-9.54822
▁단순	-9.54867
▁얼	-9.5495
▁부분이	-9.5498
엄	-9.55037
▁훨	-9.55099
확	-9.55119
총	-9.55128
▁딴	-9.55142
▁순수한	-9.55184
▁아닌데	-9.55202
가지	-9.55209
빡	-9.553
▁홍구	-9.5532
▁동화	-9.55345
▁찍은	-9.55378
▁됐	-9.55382
▁느껴지는	-9.55427
▁아놔	-9.5544
▁아니면	-9.55464
▁15	-9.55543
북	-9.55667
주고	-9.55695
쿠	-9.55699
▁그림	-9.55894
▁리메이크	-9.559
▁여전히	-9.5592
이며	-9.55921
▁괜찮	-9.55928
▁끌	-9.55944
소재	-9.5596
▁매력이	-9.55992
탕	-9.562
시절	-9.56217
봤음	-9.56293
딸	-9.56294
▁내용을	-9.5645
▁전기세	-9.56479
▁아저씨	-9.56488
▁역시나	-9.5651
▁예전	-9.5658
타임	-9.56597
▁저예산	-9.56657
▁긴	-9.56665
▁민	-9.56701
▁기분이	-9.56742
▁나중에	-9.56747
▁19	-9.56821
▁돌려	-9.56856
내요	-9.56867
클	-9.56871
▁별로다	-9.56956
릭	-9.56998
▁스토리와	-9.57
▁젤	-9.57074
▁감탄	-9.5708
▁....	-9.57084
▁맨	-9.57089
돼	-9.57109
▁OST	-9.57121
▁싶어	-9.57183
▁역대	-9.57195
었으면	-9.57274
▁떨어지는	-9.57322
▁아름답다	-9.57332
한건	-9.57336
응	-9.57411
▁권	-9.57416
▁미래	-9.57443
더만	-9.57487
▁-_-	-9.57497
▁중간중간	-9.57567
먹고	-9.57633
▁중간	-9.5768
▁처음이다	-9.57705
니깐	-9.57716
▁현대	-9.57717
▁동생	-9.57728
▁좋을	-9.57941
▁독특한	-9.57987
골	-9.58021
줌	-9.58036
▁찍어	-9.58148
*	-9.58157
팅	-9.58166
▁섹시	-9.5821
▁ᄏᄏᄏᄏᄏᄏᄏᄏᄏᄏᄏᄏᄏᄏ	-9.58222
▁해주는	-9.58248
▁메세지	-9.58256
▁<	-9.58351
▁전달	-9.58418
멋	-9.58439
하려는	-9.58512
시킨	-9.58541
▁현실성	-9.58549
▁마라	-9.58554
▁나를	-9.58655
▁유쾌	-9.58681
어쩌	-9.58724
▁했지만	-9.5875
닝	-9.58751
▁리뷰	-9.58758
▁루	-9.58834
으면서	-9.5884
▁밥	-9.58992
▁초반에	-9.59011
▁훌륭	-9.59039
었습니다	-9.59057
▁보지마세요	-9.59119
만화	-9.59201
▁슬픔	-9.593
▁연기력이	-9.5932
▁소재를	-9.59321
낼	-9.59333
▁살짝	-9.59361
▁답답	-9.59374
▁봤었는데	-9.59382
200	-9.5942
▁분노	-9.5942
▁근	-9.59499
▁든다	-9.59499
▁제작진	-9.59511
▁접	-9.59599
▁안나오	-9.59603
▁시선	-9.59613
▁나오고	-9.59662
▁역할	-9.597
▁볼때마다	-9.59758
▁벗	-9.59773
▁평범한	-9.5981
끌	-9.59832
할듯	-9.59864
▁슬프다	-9.59868
(?)	-9.59919
감독이	-9.59927
아깝	-9.59961
까진	-9.59963
▁정치	-9.59968
▁사람을	-9.60004
▁먼	-9.60021
▁사극	-9.60111
짜리	-9.60128
▁해준	-9.60177
▁보고싶다	-9.60333
▁풍	-9.60352
▁신선한	-9.60393
▁꼴	-9.60402
▁재미있음	-9.6041
둘	-9.60483
▁있다면	-9.60492
인것	-9.60529
▁애들이	-9.60532
만으로	-9.60557
▁고생	-9.60621
▁전편	-9.6072
▁분들	-9.6087
▁씨	-9.60874
욱	-9.60931
▁가진	-9.6097
왔	-9.60987
탁	-9.61061
인가요	-9.6111
급영화	-9.61147
되서	-9.61287
▁이유가	-9.6131
▁전에	-9.61355
동생	-9.61361
▁아름답고	-9.61365
▁뒷	-9.61372
▁웃겨	-9.61379
킬	-9.61394
놀	-9.61401
▁귀엽고	-9.61595
▁흘러	-9.61641
▁호러	-9.61672
유치	-9.61682
▁예쁜	-9.61702
머리	-9.61786
흔	-9.61844
▁않아	-9.61879
▁드는	-9.61925
버리	-9.62025
▁티비	-9.62064
▁다르	-9.62157
▁평생	-9.62165
프로	-9.62171
숨	-9.62204
▁희망	-9.6225
▁그들의	-9.62272
아님	-9.62287
▁과연	-9.62348
▁굳이	-9.62416
▁드라마가	-9.62429
나고	-9.62462
많은	-9.62525
▁등장	-9.62525
안에	-9.62543
▁액션은	-9.62571
에서도	-9.62588
말고	-9.62596
▁검	-9.62611
▁끝나고	-9.62639
▁괴물	-9.62645
▁죄	-9.62741
▁우울	-9.62745
▁바라	-9.62788
시키는	-9.62808
▁느껴	-9.62837
▁밀	-9.62848
제목	-9.6289
암	-9.62935
▁악역	-9.62942
▁재밌었는데	-9.63047
만들어	-9.63054
지마라	-9.63085
▁같아	-9.63137
▁고전	-9.63176
센	-9.63176
▁출	-9.63204
▁감동적이고	-9.63268
▁춤	-9.6335
▁끝난	-9.63376
험	-9.63382
▁하게	-9.63456
롱	-9.63469
▁표절	-9.63523
▁희생	-9.63535
▁통해	-9.6355
▁사랑하는	-9.63576
▁시원	-9.63603
씨가	-9.63609
▁안되고	-9.63637
--	-9.63675
▁결과	-9.63775
마저	-9.63792
▁참신	-9.63881
ᄍᄍ	-9.63883
혼	-9.63959
▁아깝	-9.63964
▁능력	-9.63979
▁ᄋ	-9.63986
▁나가	-9.64018
드리	-9.64025
재미없다	-9.6403
힐	-9.64109
ᅡ	-9.6411
▁후반	-9.64131
▁어릴적	-9.64161
▁월	-9.64164
캐	-9.6422
▁아는	-9.6429
▁스타	-9.64332
▁라는	-9.64353
웃기	-9.64371
람	-9.64407
랬	-9.64493
하는지	-9.64509
▁포기	-9.64573
▁그럼	-9.64651
▁싫다	-9.64656
협	-9.6467
▁보는게	-9.6468
▁짠	-9.64711
콜	-9.64712
댄	-9.64723
▁많다	-9.64725
▁보기엔	-9.64744
▁안됨	-9.64769
깨	-9.6481
▁기대를	-9.64818
A	-9.64829
뜻	-9.64842
▁연기에	-9.64937
▁다행	-9.64972
▁있지	-9.64992
▁여러	-9.65001
▁용서	-9.65035
거라	-9.65036
▁몰입이	-9.65072
▁남는다	-9.6513
랜	-9.65144
▁칼	-9.65165
ᄃ	-9.65207
▁열심히	-9.65236
번째	-9.65279
▁게이	-9.65334
▁압권	-9.65341
▁스토리를	-9.65348
▁종교	-9.65378
▁돋보	-9.65441
▁cg	-9.65466
▁포장	-9.65486
첨	-9.65502
▁무지	-9.65598
▁재밌었	-9.65615
▁싫	-9.65674
했어	-9.65842
▁밑에	-9.65853
▁안하고	-9.65933
결말	-9.65941
자들	-9.65979
▁캐	-9.65995
인생	-9.66053
ᄃᄃ	-9.66068
▁연기와	-9.66073
▁추천합니다	-9.66125
동안	-9.6613
▁아닌듯	-9.6613
▁그럭저럭	-9.66158
▁그의	-9.66248
▁빼	-9.66249
▁알수	-9.6627
▁몰입감	-9.66281
▁친	-9.66304
▁모르겠	-9.66312
더라구요	-9.66315
▁어제	-9.66359
한게	-9.66379
▁짜증나는	-9.66457
하면서도	-9.66506
▁우정	-9.66644
▁메시지	-9.66705
좋아요	-9.66769
진심	-9.66818
▁음악이	-9.66833
▁40	-9.66838
▁짓	-9.66845
▁생각합니다	-9.66943
기엔	-9.67017
오빠	-9.67073
봉	-9.67089
▁알바들	-9.6713
▁가지	-9.67202
▁이연걸	-9.67217
▁허무	-9.67226
▁잼있게	-9.67226
▁긴장	-9.67265
는건지	-9.67269
▁같음	-9.67284
▁만들어진	-9.67285
▁나왔으면	-9.6732
▁그걸	-9.67387
죄	-9.67429
▁난다	-9.67432
▁처음엔	-9.67443
▁달리	-9.67494
▁갑	-9.67548
하려고	-9.67548
▁빛	-9.67553
▁더이상	-9.67633
ᄒᄒᄒ	-9.67696
로서	-9.67708
없네	-9.67712
▁폭력	-9.67745
▁보고싶	-9.67759
▁크게	-9.67793
▁했던	-9.67794
▁뮤지컬	-9.67836
▁홍콩	-9.67873
있는데	-9.6795
하다니	-9.67955
▁공감이	-9.67988
▁이건뭐	-9.68012
웠	-9.68032
▁말로	-9.68048
킨	-9.68078
▁낫	-9.68128
▁재미없네	-9.6821
▁느끼는	-9.6834
▁폭	-9.68349
괴	-9.68541
▁그렇다	-9.68556
▁재밌습니다	-9.68675
▁이정도면	-9.68681
▁묘사	-9.68684
▁덜	-9.6873
뒤	-9.68737
나와	-9.68746
▁나서	-9.6876
검	-9.68766
영상	-9.68796
▁네	-9.68847
나올	-9.68851
▁티비에서	-9.68881
▁지루할	-9.69069
▁개판	-9.69073
▁사는	-9.69075
▁올리	-9.69094
영환	-9.69266
▁봤다가	-9.69316
▁되게	-9.69316
왔다	-9.69402
폐	-9.69417
▁되었다	-9.6947
표현	-9.69486
아주	-9.69547
잼있	-9.69564
▁아까워	-9.69566
▁기본	-9.69587
▁영화이다	-9.69594
▁보시길	-9.69612
전쟁	-9.69731
좋았	-9.69732
▁봤으면	-9.69771
▁주인공의	-9.69774
▁설레	-9.69947
▁진심으로	-9.69964
."""	-9.70021
▁풀어	-9.70063
접	-9.70065
▁+	-9.70089
ᄌ	-9.7009
▁중요한	-9.70133
일이	-9.70142
엄마	-9.70191
▁무섭다	-9.70205
▁소녀	-9.70213
엉	-9.70296
▁사랑과	-9.70304
것을	-9.70314
겹	-9.70319
했네	-9.70421
▁방금	-9.70472
,,,,	-9.70504
▁볼거리	-9.70574
▁흐름	-9.70594
▁I	-9.70596
년전에	-9.7061
다운	-9.70617
해준	-9.70712
하라	-9.7073
속에서	-9.70813
재밌어요	-9.70981
▁누나	-9.70998
▁재미를	-9.71032
▁놓	-9.71049
내는	-9.71061
▁몸매	-9.71089
▁이유는	-9.71136
언니	-9.7116
인의	-9.7117
▁인기	-9.71187
▁볼만함	-9.71276
▁회	-9.71306
▁채	-9.71336
옥	-9.71344
폭	-9.71353
▁생각나는	-9.71451
떠	-9.71461
▁ᄋᄋ	-9.71491
▁자막	-9.71524
▁ᅮ	-9.71568
▁다만	-9.71578
▁영화보고	-9.71634
▁임	-9.71659
▁어쩔	-9.71678
▁사랑에	-9.71762
▁만든다	-9.71846
되면	-9.71883
▁s	-9.72042
하신	-9.72052
점주는	-9.72082
하하하	-9.72096
▁쓰래기	-9.72259
얘기	-9.72388
녕	-9.72394
▁제목이	-9.72401
▁쉽게	-9.72403
▁그다지	-9.72472
▁퀄리티	-9.7248
시고	-9.72488
▁북한	-9.7266
▁추억의	-9.72918
껏	-9.72964
▁성인	-9.73032
▁높다	-9.73037
▁비주얼	-9.73061
▁표정	-9.73148
▁필요없다	-9.73172
▁관심	-9.73211
▁붙	-9.73307
▁필요없는	-9.73329
명이	-9.73347
▁최근	-9.73354
▁다큐멘터리	-9.73371
있음	-9.73473
▁죽어	-9.73492
▁몇번을	-9.73509
▁오버	-9.73554
였어요	-9.73586
▁아나	-9.73611
대사	-9.73639
택	-9.73653
사가	-9.73662
컨	-9.73732
▁없지만	-9.73771
▁볼수록	-9.73839
▁그려	-9.73877
▁좋았던	-9.73928
하시	-9.74032
▁운	-9.74072
▁유치함	-9.74124
왔는데	-9.74129
엘	-9.74219
캐릭터	-9.74233
▁삶의	-9.74253
▁아쉬움	-9.74279
▁얻	-9.74324
▁잊	-9.74362
▁지루해서	-9.74386
▁영화지만	-9.74405
쥬	-9.74408
▁가볍게	-9.74408
폰	-9.74408
▁디즈니	-9.74408
▁힐링	-9.74408
▁돌아가	-9.74417
▁똑같	-9.74451
▁재밌네	-9.74508
애들	-9.74511
▁좋습니다	-9.74529
▁언제나	-9.74557
▁후반부	-9.74582
꾸	-9.74597
지않은	-9.7466
▁재미있네요	-9.74672
▁감동과	-9.74692
▁해피엔딩	-9.74874
▁실패	-9.74876
▁아깝지	-9.74877
였지만	-9.74909
이해	-9.7492
▁못했다	-9.74924
▁글쎄	-9.74933
봤던	-9.74938
하지않	-9.75019
▁젊은	-9.75026
으로서	-9.75057
▁드라마는	-9.75061
N	-9.75074
▁싸구려	-9.75093
막장	-9.7533
▁봐야할	-9.75372
▁있나	-9.75429
in	-9.75432
▁정서	-9.75474
했나	-9.75478
▁슬프	-9.75603
▁소재가	-9.75632
▁엉성한	-9.75666
로써	-9.75683
가지고	-9.75694
▁국민	-9.75729
컷	-9.75758
▁직	-9.75762
▁귀엽	-9.75772
★	-9.75775
▁눈빛	-9.75792
▁남을	-9.758
an	-9.75816
▁샤	-9.75857
▁늘어	-9.75863
재밌다	-9.75875
▁배우의	-9.75981
▁놀라	-9.76058
웨	-9.76125
▁재밋게	-9.76148
▁풀	-9.76184
▁동물	-9.76259
슈	-9.76333
무섭	-9.76405
▁맘	-9.76424
벽	-9.76437
내용이	-9.76439
j	-9.76463
픈	-9.76604
▁와닿	-9.76708
▁보고싶은	-9.76722
나옴	-9.76744
▁탈	-9.76759
▁남아	-9.76761
▁소재로	-9.76796
봤어요	-9.76818
▁법	-9.76832
▁명작이	-9.76873
▁광고	-9.76878
▁우리가	-9.76882
▁채널	-9.76947
▁청	-9.76972
▁만큼	-9.76998
▁몰라도	-9.77031
re	-9.77132
ᄁ	-9.77157
▁핵	-9.77186
▁잔인하	-9.7722
눈물	-9.77293
▁70	-9.77387
먹는	-9.77403
줄이야	-9.77697
었고	-9.77734
▁느낄수	-9.77771
웅	-9.77784
M	-9.77786
넣	-9.77793
혈	-9.77856
▁연예인	-9.77857
▁벌써	-9.77869
기분	-9.77887
▁섹스	-9.77911
▁마세요	-9.77949
▁꺼	-9.78065
▁몰랐	-9.78076
▁잔인한	-9.78123
현실	-9.78195
▁킬링타임	-9.78225
▁멀	-9.78266
▁쓸	-9.78382
세기	-9.78388
▁그린	-9.7841
괜찮	-9.78414
▁좋아서	-9.78472
끈	-9.78502
한다는	-9.78537
틱	-9.78555
일본	-9.7861
이유	-9.78623
▁빨	-9.78691
▁이쁜	-9.78744
사이	-9.78857
봣는데	-9.78903
▁멋지다	-9.7908
▁슬프고	-9.7916
온다	-9.79185
▁헐리우드	-9.7927
▁로그인	-9.7927
▁아픔	-9.79315
▁가서	-9.79349
▁다시한번	-9.79396
▁달라	-9.79413
▁문화	-9.79414
중의	-9.79423
▁없나	-9.79452
▁되지	-9.7946
▁있어요	-9.79487
▁불쌍	-9.79579
함과	-9.79631
▁돋	-9.79667
▁도전	-9.79776
력이	-9.79777
▁ᄀ	-9.79837
섭	-9.7988
할까	-9.79908
▁이제야	-9.79921
▁아마	-9.79959
▁끝나는	-9.79982
착	-9.79993
▁가끔	-9.80027
스릴러	-9.80034
▁찡	-9.80074
으론	-9.80077
▁악당	-9.80094
▁반전도	-9.80136
감을	-9.80154
▁점수를	-9.80232
▁지구	-9.80327
▁페	-9.80332
▁홍보	-9.80344
▁않게	-9.80346
▁우주	-9.80371
▁하루	-9.80426
▁만들고	-9.80429
▁요소	-9.80507
▁죽이	-9.8051
헤	-9.80599
▁펑펑	-9.80697
▁불구하고	-9.80705
▁발전	-9.8071
사회	-9.80712
땅	-9.80741
▁ᄏᄏᄏᄏᄏᄏᄏᄏᄏᄏᄏᄏᄏᄏᄏ	-9.80768
▁고통	-9.80774
er	-9.80794
▁사람의	-9.80809
▁개인	-9.80833
▁진정	-9.80895
▁차이	-9.809
한다고	-9.80901
▁집에서	-9.80904
한다면	-9.81111
▁재밋다	-9.81186
스가	-9.81249
▁올해	-9.81252
학생	-9.81296
웠다	-9.81359
워서	-9.81359
▁보았	-9.81381
노래	-9.81405
틈	-9.81423
ᅵ	-9.81428
▁뛰어난	-9.81462
▁말을	-9.81476
▁생애	-9.81507
▁사랑스러운	-9.81536
▁사기	-9.81554
나와서	-9.81565
하지도	-9.81566
▁행	-9.8161
져서	-9.81641
O	-9.81646
공포	-9.81722
▁쫌	-9.81737
신이	-9.81756
좋고	-9.81813
▁해주	-9.8186
▁음악도	-9.81904
▁c	-9.81936
겟다	-9.81996
▁왜케	-9.82013
늘	-9.82019
▁자극	-9.82039
▁그것	-9.82121
]	-9.82159
▁어려운	-9.82159
▁에로	-9.8217
▁태규	-9.82179
▁잊혀지지	-9.8222
▁둘다	-9.82229
▁헤	-9.8223
▁많아	-9.82363
▁와우	-9.82374
개봉	-9.82426
▁인생을	-9.82445
▁의심	-9.82463
▁철	-9.82473
이었	-9.82488
▁있게	-9.82506
줬	-9.82543
▁있습니다	-9.82581
▁연출도	-9.82608
▁여기서	-9.82669
알바	-9.82751
▁영화냐	-9.82804
지않고	-9.8285
▁웃기고	-9.82862
▁어머니	-9.82894
▁눈물을	-9.82922
▁시사회	-9.82934
▁연결	-9.82972
안되	-9.82997
▁할말	-9.83016
점준	-9.83026
했으나	-9.83087
▁재밌었음	-9.83093
♥♥	-9.83101
▁낮아서	-9.83137
▁식상	-9.83152
빼고	-9.83173
▁영화관	-9.83174
▁딱히	-9.83223
▁킬링타임용으로	-9.83245
▁한국인	-9.83288
스럽	-9.83301
▁산으로	-9.83344
필요	-9.83446
▁드럽게	-9.83456
▁유치하다	-9.83515
용으로	-9.83588
▁열정	-9.83598
압	-9.83602
▁시간을	-9.83623
자체가	-9.83623
엠	-9.83632
▁아름다움	-9.83634
▁무언가	-9.83636
▁베스트	-9.83683
대는	-9.83693
▁못한다	-9.83728
몽	-9.83771
갔다	-9.83797
르고	-9.838
답답	-9.83809
▁묻	-9.84006
▁나오면	-9.84045
▁유명	-9.84047
같음	-9.84076
▁푹	-9.84145
▁끌어	-9.8415
▁무섭	-9.84178
▁;;	-9.84195
▁빌려	-9.84259
▁볼만하	-9.84273
▁죄다	-9.84288
▁순수	-9.8429
했다는	-9.84295
▁안돼	-9.84329
▁봣는데	-9.8447
▁생생	-9.84483
▁느와르	-9.84532
▁단연	-9.8454
▁평범	-9.84577
해주세요	-9.84621
▁조폭	-9.84687
높	-9.84715
줘야	-9.84743
▁볼만하다	-9.8475
▁평이	-9.84754
▁반성	-9.84762
▁찌	-9.84792
세상	-9.84804
▁무서워	-9.84816
▁엉망	-9.84858
▁거지	-9.84923
▁남자가	-9.84923
나가는	-9.84939
봣	-9.8495
▁재미있었다	-9.84967
▁S	-9.85075
▁바뀌	-9.85096
▁쵝오	-9.85133
있네	-9.85158
▁죽는	-9.8518
▁어이가	-9.85187
▁짱짱	-9.85228
정신	-9.85253
수도	-9.85288
무비	-9.85315
▁a	-9.85325
짜증	-9.85337
잠	-9.85358
보자	-9.85375
에대한	-9.85383
▁캐릭터들	-9.85414
▁좀더	-9.85476
▁되었	-9.85517
닌	-9.85555
▁투자	-9.85631
▁의도	-9.85668
▁뜻	-9.85727
았던	-9.85728
▁정말로	-9.85792
원작	-9.85803
.......	-9.85866
▁인간이	-9.85876
값	-9.85876
으려	-9.85885
▁레전드	-9.85891
▁청소년	-9.85893
▁50	-9.85911
▁결말은	-9.85918
▁나왔다	-9.85979
을수	-9.85989
▁들었	-9.86034
엿	-9.86066
▁몰입해서	-9.86067
쓴	-9.86095
▁남겨	-9.86105
시작	-9.86131
연기가	-9.86182
▁출연진	-9.86189
스터	-9.86216
▁전문가	-9.86283
▁혼	-9.86307
▁앞	-9.86332
한것	-9.86345
▁힘들다	-9.8638
▁무시	-9.86398
스타일	-9.86403
우리	-9.86477
▁옛날에	-9.86533
▁연속	-9.86627
▁부르	-9.86631
좌	-9.86649
솔	-9.86652
스러워	-9.86663
▁미드	-9.86697
▁어른	-9.86773
님의	-9.86788
▁환상	-9.86802
▁남녀	-9.86817
편의	-9.86833
님이	-9.8686
▁팬이	-9.86875
▁현실적인	-9.86899
아니다	-9.86912
것만	-9.8692
푸	-9.86926
▁찍었	-9.86949
▁보았다	-9.87008
중에서	-9.87018
쳤	-9.87058
▁탄탄한	-9.87064
구성	-9.87094
평점이	-9.87172
ᅲᅲᅲᅲ	-9.87199
▁좋았	-9.8721
▁결말도	-9.87289
내고	-9.87325
칭	-9.87422
▁헐리웃	-9.87423
▁스스로	-9.87426
놨	-9.87431
인들	-9.87438
▁흔한	-9.87449
겁니다	-9.87509
▁못해	-9.87512
▁하면서	-9.87536
▁시시	-9.87557
영화라고	-9.87578
▁나옴	-9.87599
▁아직까지	-9.87647
▁당신	-9.87676
친다	-9.87713
▁ᅲᅲᅲ	-9.87788
▁질리지	-9.878
버리는	-9.87805
▁시걸	-9.87826
▁매력있	-9.87831
연기도	-9.87837
▁멍청한	-9.87842
▁재미없어요	-9.87861
▁괜찮았	-9.87887
▁지금은	-9.87988
내용도	-9.88
▁대화	-9.88004
▁단순한	-9.88037
부족	-9.88038
on	-9.88048
▁인간들	-9.88094
▁예쁘	-9.88187
닉	-9.88198
▁견자단	-9.88198
▁뻔하고	-9.88242
▁표현한	-9.88285
영화의	-9.88325
▁외모	-9.88369
▁뜨	-9.88395
해야지	-9.88404
긴한데	-9.88434
▁잭	-9.8847
편보다	-9.88472
▁T	-9.88483
▁영어	-9.88516
떡	-9.88526
▁떠나서	-9.88533
지를	-9.88537
▁가능	-9.88573
으로써	-9.88604
냥	-9.88612
▁받아	-9.88626
▁쇼	-9.88635
하는건	-9.88637
▁매력적이	-9.88665
!!!!!	-9.88677
나온다	-9.88686
럼	-9.88708
▁건지	-9.88744
▁빈	-9.88795
아요	-9.88848
▁시대를	-9.8886
계속	-9.88906
▁전체	-9.88907
▁보니까	-9.88937
▁끝이	-9.88959
뽕	-9.88979
▁맨날	-9.89031
했네요	-9.89045
▁영국	-9.89135
▁끼	-9.89196
▁제작비	-9.89209
▁느	-9.89257
정이	-9.89338
가요	-9.89368
▁생각없이	-9.89385
센스	-9.89398
▁높아	-9.89404
▁무엇을	-9.89416
▁니	-9.89595
▁느낀	-9.89602
▁보지마	-9.89616
째	-9.8971
▁느낌을	-9.89734
▁장면에서	-9.89759
▁즐겁게	-9.89771
▁심심	-9.89963
만드는	-9.89975
▁단지	-9.90073
▁앜	-9.90073
는것도	-9.901
보는내내	-9.90272
▁이후로	-9.90318
려면	-9.90337
▁에휴	-9.90367
면에서	-9.90398
▁말하는	-9.90439
율	-9.9047
나게	-9.90475
지말고	-9.90495
혁	-9.90522
세계	-9.9054
스러움	-9.90543
하구	-9.90584
▁조연	-9.90614
▁지켜	-9.9064
▁시각	-9.90675
시간에	-9.90686
▁신화	-9.90686
▁같아서	-9.90698
▁좋았을	-9.90719
▁말할	-9.9075
▁충	-9.90792
▁모든게	-9.90796
▁우와	-9.90831
▁잔잔하고	-9.9085
▁작가가	-9.90865
떨	-9.90986
▁않지만	-9.91074
가슴	-9.91084
▁할말이	-9.91097
▁듣	-9.91149
▁관객들	-9.91208
▁하네요	-9.91243
▁나오지	-9.91276
▁남편	-9.91294
이라서	-9.91331
떄	-9.9136
례	-9.9136
톱	-9.9136
▁누군가	-9.91361
▁위대한	-9.91362
▁기대안하고	-9.91386
▁그거	-9.91394
▁발견	-9.91398
▁유명한	-9.9142
▁완	-9.91425
▁배우들도	-9.91432
장면이	-9.91465
▁이해할	-9.9147
▁주변	-9.91478
11	-9.91492
▁야한	-9.915
ᅲᅮ	-9.91527
기위해	-9.9156
▁발로	-9.91591
냈	-9.91624
겁	-9.91679
사람은	-9.9169
하겠	-9.91695
OOO	-9.91719
젠	-9.91777
▁넘어	-9.91784
였고	-9.91799
▁어렸을	-9.91826
밥	-9.91828
▁재밌을	-9.91834
▁울고	-9.91838
or	-9.91839
차라리	-9.9184
사는	-9.91881
▁받았	-9.91895
▁누구나	-9.91909
▁비슷	-9.91995
받는	-9.92003
기억	-9.92092
렉	-9.92141
뛰	-9.92143
즘	-9.92203
하는것	-9.92224
▁이거보고	-9.92237
▁않나	-9.92264
▁생각하고	-9.92299
었어	-9.92327
따라	-9.92331
▁형님	-9.92335
▁필	-9.92358
▁꾸	-9.92368
새끼	-9.92377
▁되고	-9.92439
▁유쾌하고	-9.92461
흐	-9.92462
▁아이돌	-9.9247
이였다	-9.92481
들만	-9.92482
▁싶네요	-9.92509
▁안보고	-9.92561
님들	-9.92597
형님	-9.9263
▁언니	-9.92646
▁"""""""	-9.92675
묘	-9.92678
학교	-9.92686
▁이기	-9.92709
지않는	-9.92738
........	-9.92767
▁못하	-9.92904
더라면	-9.92906
▁솔직	-9.92923
▁생각하는	-9.92935
▁내려	-9.92942
릿	-9.92968
▁이런영화가	-9.92973
몬	-9.92979
▁샛별	-9.9298
▁김기덕	-9.9298
`	-9.9298
▁갈등	-9.93048
▁눈에	-9.93125
영화로	-9.93138
▁아줌마	-9.93145
st	-9.93186
▁시도	-9.93225
▁반복	-9.93253
▁없는데	-9.93255
까요	-9.93289
▁굿굿	-9.93289
계의	-9.93318
자는	-9.93351
▁국내	-9.93369
꿀잼	-9.93433
▁잔	-9.93452
▁싶지	-9.93465
▁안타깝다	-9.93469
▁시트콤	-9.93479
스의	-9.9351
봅니다	-9.93512
▁한심	-9.93547
시다	-9.93575
▁한참	-9.93605
관계	-9.93631
있어서	-9.93693
▁ᄉ	-9.93709
▁히	-9.93742
해진	-9.93753
▁보인다	-9.93773
▁즐거운	-9.93799
넹	-9.93799
▁달달	-9.93869
이니	-9.93949
▁착	-9.93956
▁보길	-9.9397
▁침	-9.94049
▁허세	-9.94079
그리	-9.94093
하시는	-9.9416
▁한데	-9.94182
다는게	-9.94199
끼리	-9.94228
기로	-9.94279
▁있으면	-9.94309
▁송	-9.94326
▁먹고	-9.94341
냈다	-9.94354
줘서	-9.9437
▁영화에요	-9.94372
▁하는지	-9.94377
쉽	-9.9438
쾌	-9.94477
▁있네요	-9.94492
▁부모	-9.94492
▁헤어	-9.94508
▁못할	-9.94537
리를	-9.94578
▁인물들	-9.94584
잤	-9.94604
렁	-9.94626
▁공부	-9.94675
상을	-9.94757
▁떨어지	-9.94768
▁줌	-9.94787
▁진지	-9.94832
▁시청자	-9.94833
돌아	-9.94848
와는	-9.94876
▁이쁘다	-9.94943
씬은	-9.94985
▁밤	-9.94991
▁13	-9.95033
들고	-9.95048
▁친구들	-9.95068
자나	-9.9509
▁멋있다	-9.95098
수있는	-9.95123
벨	-9.95222
I	-9.95234
▁착한	-9.95265
몰입	-9.95276
식으로	-9.95356
있었	-9.95368
▁모르겠고	-9.95374
▁미모	-9.95376
▁허술	-9.95456
▁로봇	-9.95464
▁보고나면	-9.9547
됬	-9.95507
▁찌질	-9.95535
▁이쁘고	-9.95539
자의	-9.95572
▁망한	-9.95608
ar	-9.95619
▁옛	-9.95688
▁멍청	-9.95854
잔잔	-9.95866
▁씬	-9.95873
설정	-9.95895
▁개연성이	-9.9591
ᄏᄏᄏᄏᄏᄏᄏᄏᄏ	-9.95994
▁힘이	-9.96027
쩔	-9.96038
▁합	-9.96048
리지	-9.96053
▁진리	-9.96126
▁군	-9.96241
ᄇ	-9.96282
▁브	-9.96292
낀	-9.96294
▁the	-9.963
▁의외로	-9.96318
▁울었다	-9.96325
대가	-9.96337
▁불쾌	-9.96425
▁코난	-9.96435
▁죽여	-9.96437
▁무척	-9.96445
편을	-9.96466
억지	-9.96491
▁최고입니다	-9.96495
제발	-9.96505
거면	-9.96509
▁필요한	-9.96561
▁대사가	-9.96561
▁멋	-9.9664
▁취향	-9.96654
▁노답	-9.96671
...........	-9.96693
▁있어야	-9.96711
하려	-9.96811
▁설마	-9.96837
▁당시에	-9.96844
▁w	-9.96871
았습니다	-9.96895
▁체	-9.96903
▁그렇다고	-9.96905
▁음악과	-9.96913
"""""""	-9.96916
끝나	-9.96942
▁빼고	-9.96951
짧	-9.96953
▁꿈을	-9.96973
밤	-9.96978
붙	-9.96981
▁[	-9.97068
▁뭉클	-9.97147
▁전투	-9.97148
▁살고	-9.97166
▁따뜻해지는	-9.97174
▁대부분	-9.97192
셈	-9.97199
▁여행	-9.97226
▁어휴	-9.97227
▁의리	-9.97258
메이	-9.9728
▁하나하나	-9.97294
▁신경	-9.97302
▁이미지	-9.97422
▁썩	-9.97423
점수	-9.97495
▁에피소드	-9.97542
▁영화였어요	-9.97594
하던데	-9.97609
▁들어가	-9.97705
것들	-9.97743
▁올라	-9.97755
▁오바	-9.97803
부작	-9.9781
장난	-9.97839
버려	-9.97855
쥐	-9.9786
▁덕분에	-9.97889
▁짝퉁	-9.9789
▁보자	-9.97901
▁좋게	-9.97959
▁그럴	-9.97967
흡	-9.97982
뮤	-9.98001
▁007	-9.98003
줬다	-9.98061
버리고	-9.98063
▁재미있었어요	-9.98072
있나	-9.98087
지지	-9.98098
▁낳	-9.98144
▁잊지	-9.98219
▁긴장감도	-9.98238
▁아쉽네요	-9.98246
▁속에	-9.98252
만의	-9.98321
▁살려	-9.98364
자체	-9.98387
ᄋᄋ	-9.98414
▁웃음이	-9.98487
▁무비	-9.98489
▁인생의	-9.98702
읽	-9.98707
샤	-9.98758
▁엉성	-9.98765
버릴	-9.98835
▁봤더니	-9.98864
칸	-9.98864
퀴	-9.98864
▁마이너스	-9.98864
▁초등학생	-9.98864
▁카리스마	-9.98864
둔	-9.98864
▁경험	-9.98883
는듯	-9.98893
▁영혼	-9.989
▁복잡	-9.98901
였어	-9.98904
▁최강	-9.98938
?!	-9.98948
▁역대급	-9.98948
누나	-9.98964
받고	-9.99003
.........	-9.99006
▁나쁘지	-9.99039
▁희	-9.9904
놔	-9.99064
힘	-9.9909
▁자살	-9.9925
내내	-9.99272
▁아침	-9.99316
▁즐기	-9.99324
▁꽃	-9.99358
영화임	-9.99515
거같은데	-9.99541
▁작품을	-9.99601
요즘	-9.99607
▁어렵	-9.99613
▁판	-9.99615
▁신선하고	-9.99617
▁일이	-9.99656
젤	-9.99661
활	-9.99687
이었음	-9.99714
▁데이	-9.99718
텔	-9.99718
짜증나	-9.99718
▁미안	-9.9972
▁바꿔	-9.99733
▁마이클	-9.99739
스럽고	-9.99747
▁민망	-9.99784
12	-9.99795
상황	-9.99798
▁그건	-9.99802
▁기술	-9.99805
겠어요	-9.99841
문제	-9.99852
▁조합	-9.99861
▁논	-9.99868
▁퇴	-9.99896
▁받을	-9.9991
▁모르겠지만	-9.99913
▁학교에서	-9.99937
▁본인	-9.99961
▁지루했다	-10.0001
만큼은	-10.0005
▁쩐다	-10.0007
켜	-10.0012
▁적당	-10.002
하다가	-10.0022
이런영화	-10.0025
하지마라	-10.0027
▁좋지만	-10.003
상태	-10.0039
▁슬	-10.004
▁작품이다	-10.0045
우스	-10.0047
똥	-10.0048
흘리	-10.0051
깔	-10.0052
▁빼고는	-10.0057
농	-10.0061
▁고양이	-10.0061
▁더불어	-10.0061
▁흥미로운	-10.0062
▁뇌	-10.0063
▁기다리	-10.0065
▁결	-10.0067
▁제로	-10.007
▁슈퍼	-10.0071
▁학교	-10.0075
집니다	-10.0075
아쉽	-10.0076
▁없었던	-10.0081
▁해석	-10.0083
▁양심	-10.0083
▁박수를	-10.0087
▁극치	-10.0091
해진다	-10.0092
했을까	-10.0092
럴	-10.0092
셔서	-10.0092
문화	-10.0092
▁크리스마스	-10.0092
▁자식	-10.0092
▁18	-10.0093
ᅮᅮᅮ	-10.0096
▁부터	-10.0098
▁감동적	-10.0102
▁올려	-10.0109
▁안나	-10.0109
느라	-10.0112
▁작은	-10.0116
▁보러	-10.0124
▁암튼	-10.0124
적은	-10.0135
▁:	-10.0138
▁웃김	-10.0138
▁찬	-10.0138
하기엔	-10.0138
▁손발이	-10.014
콘	-10.014
▁어린이	-10.0144
했었는데	-10.0144
▁명품	-10.0146
▁더러운	-10.015
▁직접	-10.015
▁일어나	-10.0154
잡고	-10.0155
▁감정을	-10.0156
▁삶에	-10.016
▁좋았지만	-10.0165
▁방법	-10.0167
▁수도	-10.017
▁무서웠	-10.0176
▁죽은	-10.0177
▁동안	-10.018
▁부족하다	-10.0181
연기력	-10.0202
▁술	-10.0203
▁언	-10.0206
만들었	-10.021
▁궁	-10.0211
▁최대	-10.0214
▁주말	-10.0215
▁썼	-10.0217
것같	-10.0221
쳤다	-10.0222
씨의	-10.0237
뚱	-10.0239
뜬	-10.0239
▁외계인	-10.0239
▁주성치	-10.0239
냄새	-10.024
할수있	-10.0242
▁비극	-10.0243
얼굴	-10.0243
찾	-10.0246
▁귀여워	-10.0247
▁일품	-10.025
한국	-10.0251
▁영화인듯	-10.0253
이자	-10.0255
엇다	-10.0259
끝까지	-10.0264
▁이하	-10.0277
▁독특	-10.0279
재밌음	-10.0281
▁아프	-10.0282
점정도	-10.0282
▁피해자	-10.0284
▁미소	-10.0286
간의	-10.0294
▁빌	-10.0297
▁싸이코	-10.0297
▁뭐라	-10.0324
▁지루하게	-10.0326
껴	-10.0327
▁좋았으나	-10.033
굴	-10.0332
흘	-10.0336
▁알려	-10.0337
시즌	-10.034
저리	-10.0343
오늘	-10.0349
박수	-10.0361
▁하는거	-10.0362
▁있던	-10.0362
▁말하고	-10.0363
▁아이가	-10.037
그래	-10.0375
감동적	-10.038
영화에	-10.0381
▁없다는	-10.0381
▁본다면	-10.0387
더라도	-10.0388
엔딩	-10.0391
▁실제로	-10.0392
매력	-10.0393
기까지	-10.0397
라는게	-10.04
▁한명	-10.0406
▁볼수있	-10.0418
▁블랙	-10.0419
▁보내	-10.0421
▁뒤로	-10.0422
▁좋겠어요	-10.0425
▁사랑은	-10.0426
▁철학	-10.0426
▁용기	-10.0426
지네요	-10.0427
▁한번쯤	-10.0428
▁다룬	-10.0428
▁놈	-10.0429
▁괜찮다	-10.0433
▁게다가	-10.0435
▁뛰어	-10.0436
모양	-10.0438
▁교육	-10.0441
▁완전히	-10.0446
▁기대했는데	-10.045
▁모르	-10.0453
▁행복한	-10.0458
▁의미를	-10.0459
▁간다	-10.046
안되는	-10.0467
▁오랜만	-10.0468
식이	-10.0471
출연	-10.0471
았음	-10.0472
▁이래	-10.0479
▁앤	-10.0482
▁원작의	-10.0488
물이	-10.0491
▁d	-10.0492
▁중반	-10.0499
it	-10.05
z	-10.0512
▁포르노	-10.0512
층	-10.0512
▁지나치게	-10.0512
ing	-10.0513
▁맞아	-10.0513
▁웃기지도	-10.0518
▁이유를	-10.0518
▁잊을	-10.0519
겠습니다	-10.052
콩	-10.0522
맹	-10.0524
▁사랑의	-10.0524
곳	-10.0524
▁안타깝	-10.0526
인건	-10.0528
▁쓰레기같은	-10.053
▁꽝	-10.053
년만에	-10.0531
슬프	-10.0535
▁연기력도	-10.0535
▁엄	-10.0538
▁커플	-10.0543
배경	-10.0549
▁십	-10.0551
까지는	-10.0561
▁비판	-10.0562
▁않을까	-10.0564
▁울었	-10.0564
▁많았	-10.0579
▁망치	-10.0579
▁좋아해서	-10.0583
▁똑같은	-10.0584
▁얼마	-10.0586
멘	-10.0587
▁중에서	-10.0591
컬	-10.0604
시길	-10.0604
▁패러디	-10.0604
▁스트레스	-10.0604
▁느껴진다	-10.0606
▁레알	-10.0609
F	-10.0619
트리	-10.0619
▁생각나	-10.0619
꼴	-10.062
▁없지	-10.0621
좋아하는	-10.0622
▁해결	-10.0623
명의	-10.0629
▁모르게	-10.0636
왓	-10.0645
▁갔	-10.0651
잇는	-10.0655
▁케이블	-10.0656
▁곳	-10.066
배우들의	-10.0662
▁상처	-10.0664
▁한마디	-10.0665
▁어른들	-10.0667
버림	-10.0668
▁밑	-10.0672
▁보며	-10.0675
감독님	-10.0679
않는	-10.0685
▁남자의	-10.0689
올리	-10.0693
is	-10.0694
K	-10.0698
▁평점보고	-10.0703
겠음	-10.0705
▁따로	-10.0707
뭔가	-10.0716
▁할까	-10.0716
덤	-10.0716
▁원작이	-10.0718
▁왠	-10.0725
▁시청	-10.073
▁끊	-10.0731
ᄏᄏᄏᄏᄏᄏᄏᄏ	-10.0732
▁진부하고	-10.0738
그래서	-10.0739
▁연기자들	-10.0743
▁오글	-10.0748
▁선생님	-10.0748
▁잼있다	-10.0754
▁대중	-10.0763
▁보여준다	-10.0769
▁전설의	-10.0771
▁많고	-10.0776
..........	-10.0779
룡	-10.0779
▁콩	-10.0779
붕	-10.0784
더럽	-10.0785
묵	-10.0791
쯔	-10.0792
핑	-10.0792
ᅥ	-10.0792
▁잠깐	-10.0793
▁기다려	-10.0793
▁몇몇	-10.0794
▁아까울	-10.0794
▁반개도	-10.0796
보게	-10.0796
▁넘치는	-10.0796
▁견	-10.0797
▁답답한	-10.0797
▁봤을때	-10.0798
끄러	-10.0801
▁사랑이야기	-10.0807
아까움	-10.0812
쓸	-10.0815
돋	-10.0815
논	-10.0815
▁뿐이다	-10.0822
▁모를	-10.0823
▁무협	-10.0825
▁개성	-10.0833
보여	-10.0835
치곤	-10.0845
하고싶은	-10.0849
▁싶은데	-10.0852
받은	-10.0863
▁대해서	-10.0867
개도	-10.0868
남는	-10.0872
▁애기	-10.0873
▁미쳤	-10.0879
▁좋아할	-10.0885
▁디테일	-10.0887
▁젠장	-10.0887
▁옷	-10.0892
겠네요	-10.0904
하기도	-10.0905
공감	-10.0905
살아	-10.0911
G	-10.0912
으니까	-10.0926
▁멍	-10.0927
▁이럴	-10.0929
▁재밌다고	-10.0931
▁가득	-10.0933
▁훈훈한	-10.0939
▁무섭지도	-10.0943
▁관한	-10.0946
▁가슴에	-10.0949
▁쓰레기다	-10.095
▁이해하기	-10.095
▁개봉한	-10.0951
공주	-10.0955
▁돼	-10.0958
▁들었다	-10.0965
▁홍콩영화	-10.0975
같고	-10.0978
▁괜찮은데	-10.0983
쟁이	-10.0986
▁개막장	-10.0997
▁지루하기	-10.0998
..;;	-10.1
따위	-10.1
겼	-10.1
▁현실이	-10.101
속의	-10.1013
쏘	-10.1013
▁꼽	-10.1017
▁불러	-10.1018
감독의	-10.1025
▁감동적이다	-10.103
▁낚시	-10.103
▁결론	-10.103
▁추억이	-10.1032
▁드립니다	-10.1032
사람들이	-10.1033
▁실력	-10.1037
▁못함	-10.1037
▁탑	-10.1039
▁왠만하면	-10.1039
▁빠진	-10.1044
▁그녀의	-10.1055
딴	-10.1055
▁좋아하는데	-10.1056
♥♥♥	-10.1059
▁생각하면	-10.106
빨리	-10.1063
▁재미잇	-10.1066
▁폴	-10.1071
0%	-10.108
▁영화인	-10.108
렷	-10.108
셋	-10.108
▁소중한	-10.1081
▁감흥	-10.1082
▁개뿔	-10.1084
▁아련	-10.1085
옴	-10.1089
▁변태	-10.109
▁싶었	-10.1093
▁빠져들	-10.1101
공포영화	-10.1104
X	-10.1108
쩌	-10.1109
▁주기	-10.1109
빛	-10.1113
어떻게	-10.1116
▁왜이래	-10.1117
더빙	-10.112
보구	-10.1123
초반	-10.113
▁긴장감이	-10.1133
나오고	-10.1134
▁기자	-10.1135
때부터	-10.1139
▁재미와	-10.114
사람들은	-10.1147
▁에이	-10.1156
싶다	-10.1166
▁앞으로도	-10.1167
마지막에	-10.1168
▁내일	-10.1169
옹	-10.1177
▁그렇지	-10.1179
▁자주	-10.118
▁이제서야	-10.1181
▁겨우	-10.1181
있냐	-10.1188
▁존경	-10.1189
▁재밌던데	-10.1191
▁갖	-10.1192
만이	-10.1193
▁이용	-10.1193
▁보여줬	-10.1194
▁응	-10.1195
▁통쾌	-10.1195
▁야동	-10.12
▁악마	-10.1209
▁막판에	-10.1217
▁할수	-10.1217
헐	-10.1218
▁필름	-10.1222
장애	-10.1223
!!!!!!!!!	-10.1223
나왔	-10.1224
▁관점	-10.1225
▁없어요	-10.1228
▁웃고	-10.1229
▁됨	-10.1233
▁헛	-10.1234
▁한국영화는	-10.1238
았는데	-10.1239
▁퍼	-10.1246
놈이	-10.1247
▁보려고	-10.1248
▁녹	-10.1249
건가요	-10.125
▁빵점	-10.1272
▁케	-10.1277
멸	-10.1277
찔	-10.1277
▁DVD	-10.1277
깍	-10.1277
납니다	-10.1279
점줌	-10.128
▁풍경	-10.1284
▁화가	-10.1292
▁웃기다	-10.1293
랜드	-10.1298
▁감히	-10.1302
▁안맞	-10.1307
분은	-10.1309
▁빠지	-10.1309
널	-10.1317
▁정의	-10.1318
P	-10.1319
▁있었지만	-10.132
꽃	-10.132
큰	-10.1321
스럽게	-10.1329
▁한심한	-10.1333
주면	-10.1342
어디	-10.1344
어진	-10.1344
▁속에서	-10.1352
▁봣	-10.1354
잃	-10.1357
▁할머니	-10.1361
보이는	-10.1363
코드	-10.1371
▁졸리	-10.1371
▁둘이	-10.1375
▁본거	-10.1377
▁점수가	-10.1377
ᄎ	-10.1377
닭	-10.1377
핀	-10.1378
리아	-10.1379
학년	-10.138
냐고	-10.138
▁말도안되는	-10.1381
▁짜증난다	-10.1384
보다도	-10.1386
▁하나의	-10.1386
새끼들	-10.1388
▁우리는	-10.1392
▁색	-10.1393
▁잼있어요	-10.1394
▁욕망	-10.1399
▁전개도	-10.1401
▁아픈	-10.1402
되네요	-10.1407
▁보긴	-10.1413
▁보통	-10.1417
▁작가님	-10.1419
▁믿을	-10.142
맥	-10.1425
▁승	-10.1425
싸움	-10.143
틴	-10.143
것같아요	-10.1433
▁인해	-10.1435
신분	-10.1435
▁죽이는	-10.1436
▁몇번	-10.1439
하기만	-10.1442
도안	-10.1443
감정	-10.1447
▁심하게	-10.1449
편도	-10.1453
▁우리의	-10.1459
고싶어	-10.1462
▁끝났	-10.1468
스키	-10.1475
ᄐ	-10.1478
깜	-10.1478
▁스크린	-10.1479
▁웬	-10.1479
▁어린시절	-10.148
▁떨어진다	-10.1481
▁바꾸	-10.1483
뭐야	-10.1485
몇	-10.1489
▁보기에	-10.1489
▁무술	-10.1493
▁있구나	-10.1494
▁강력	-10.1496
▁보았습니다	-10.1496
그만	-10.1498
자를	-10.1499
▁이때	-10.1504
같네	-10.1505
▁사진	-10.1513
▁왔	-10.1525
▁보여주고	-10.1528
드립니다	-10.1536
이걸	-10.1546
받아서	-10.1551
▁생각함	-10.1553
▁촌	-10.1563
▁봤었	-10.1564
혹은	-10.1566
▁O	-10.1568
모든	-10.1571
엽	-10.1577
스톤	-10.1579
▁끄	-10.158
▁거짓말	-10.1586
▁있는지	-10.1588
점이다	-10.1589
▁최초	-10.1589
▁어쩔수	-10.159
▁짝이	-10.1592
▁깨닫게	-10.1593
다운받	-10.1594
▁영화보면서	-10.1595
~!!!	-10.1599
큐	-10.1601
▁본영화	-10.1601
볼만	-10.1601
▁편견	-10.1604
▁참신한	-10.1609
▁죽는줄	-10.1612
로만	-10.1612
▁내면	-10.1615
▁흑인	-10.1618
버전	-10.1628
흥	-10.1633
다니는	-10.1633
쓰고	-10.1642
편에	-10.1642
▁집에	-10.1647
▁모두가	-10.1649
마리	-10.1652
▁조화	-10.1656
▁장르가	-10.166
본영화	-10.166
▁쩝	-10.1663
▁본방사수	-10.1663
▁어릴	-10.1663
빠지	-10.1665
▁다루	-10.1666
년도에	-10.1667
▁비디오로	-10.168
춰	-10.1681
▁만들면	-10.1681
쿵	-10.1684
손가락	-10.1685
▁2014	-10.1685
▁재미없게	-10.1685
상실	-10.1685
브라	-10.1686
▁자신이	-10.1687
▁영원히	-10.1687
▁쓰는	-10.1688
▁홀	-10.1693
▁낮다	-10.1697
▁흥	-10.1697
당한	-10.1698
▁슬퍼	-10.1702
▁영화들	-10.1704
▁도망	-10.1705
▁줬	-10.1706
30	-10.1713
▁위해서	-10.1713
보고싶다	-10.1715
▁쿠	-10.172
자리	-10.1724
▁옥	-10.1728
▁영화보는	-10.1732
임에도	-10.1742
털	-10.1743
▁세상을	-10.1743
L	-10.1743
물을	-10.1745
베리	-10.1748
▁사고	-10.1753
관람	-10.1755
▁시리즈중	-10.1757
▁않네요	-10.1758
▁잇	-10.1761
거리는	-10.1762
▁환	-10.1764
▁정도의	-10.1766
▁오빠	-10.1775
안됨	-10.1784
헌	-10.1784
▁심각	-10.1788
셀	-10.1788
숭	-10.1788
생활	-10.1788
▁11	-10.1791
▁전쟁영화	-10.1797
▁하늘	-10.1797
▁캐릭터가	-10.1804
▁방영	-10.1804
어린	-10.1808
▁잊을수	-10.1809
둥이	-10.1811
▁색감	-10.1813
▁효과	-10.1813
듯이	-10.1814
▁나머지	-10.1815
▁재미있었	-10.1825
원이	-10.1825
▁아내	-10.1826
인물	-10.1835
▁소름이	-10.1837
▁위로	-10.1838
19	-10.184
▁확실	-10.1848
▁아니야	-10.1849
▁명작입니다	-10.1852
덜	-10.1853
제작	-10.1854
▁푸	-10.1854
▁봤을	-10.1855
하겠다	-10.1865
했다고	-10.1866
좋음	-10.1867
▁어이	-10.1871
▁몇년	-10.1874
닐	-10.1876
▁평론가들	-10.1877
티비	-10.1877
부러	-10.1879
▁맹	-10.1879
도아니고	-10.1885
▁부모님	-10.1891
찐	-10.1893
▁시간가는줄	-10.1893
탱	-10.1893
▁동성애	-10.1893
▁여러가지	-10.1895
▁특별한	-10.1896
▁관객을	-10.1897
▁화려하	-10.1903
▁받는	-10.1914
▁있었는데	-10.193
▁생각나서	-10.1933
▁듣고	-10.1935
받아	-10.1951
지요	-10.1953
▁이것이	-10.196
▁야구	-10.1961
모두	-10.1962
솔직히	-10.1963
▁여러분	-10.1976
이즈	-10.1976
▁선물	-10.1977
▁있겠	-10.1978
▁아예	-10.1992
소설	-10.1992
▁국가	-10.1995
거같아요	-10.1996
보지	-10.1997
▁재난영화	-10.1999
▁잔뜩	-10.2
장이	-10.2001
▁무엇인지	-10.2003
▁모험	-10.2005
부분이	-10.2008
▁여름	-10.2009
▁알겠는데	-10.2009
▁깔	-10.2009
▁비밀	-10.201
▁대놓고	-10.2016
▁쥐	-10.2017
▁배우를	-10.202
▁감안	-10.2024
▁자신을	-10.2025
▁이래서	-10.2027
▁단어	-10.2028
기전에	-10.2029
▁잔인	-10.2032
▁라고	-10.2035
▁만든영화	-10.2037
▁중요	-10.2038
▁감동의	-10.2043
있습니다	-10.2049
▁충격적이	-10.2057
▁오로	-10.2057
지도않고	-10.2058
▁조작	-10.206
▁척	-10.206
▁느꼈다	-10.206
▁못하다	-10.206
▁나은	-10.2063
▁작품은	-10.2065
▁훌륭하다	-10.2066
요소	-10.207
없어서	-10.2072
<	-10.2072
허접	-10.2074
커플	-10.2079
▁문제가	-10.2095
사건	-10.2096
▁가치가	-10.21
▁D	-10.2103
▁아닙니다	-10.2107
▁액션씬	-10.2108
▁억지스러운	-10.2113
앞에서	-10.2114
빠르	-10.2119
▁넌	-10.2121
▁보지마라	-10.2123
하길	-10.2123
▁갖고	-10.2128
▁만들다니	-10.2129
옆	-10.2132
에서의	-10.2137
▁없습니다	-10.2139
았어요	-10.2139
▁다르다	-10.2139
ᄏᄏᄏᄏᄏᄏᄏᄏᄏᄏ	-10.2142
이죠	-10.2142
햇다	-10.215
▁안타까운	-10.2153
▁비하면	-10.2155
▁결정	-10.2156
▁분들은	-10.2161
보니까	-10.2161
▁최고였다	-10.2163
▁제외	-10.2168
▁죽을	-10.2169
▁대본	-10.217
▁최근에	-10.2176
▁이런영화를	-10.2182
▁잼없	-10.2184
▁찰	-10.2186
▁거기에	-10.2186
흠	-10.2186
▁촌스럽	-10.2187
적이다	-10.2188
본사람	-10.2188
스포	-10.2188
주연	-10.2191
둥	-10.2191
▁쩌	-10.2195
구석	-10.2206
랄까	-10.2209
▁형사	-10.2215
▁짜임새	-10.2216
▁색다른	-10.2217
▁끈	-10.2222
먹었	-10.2224
극장	-10.2225
▁아이디어	-10.2227
▁또다른	-10.2229
▁돌리	-10.2232
▁배역	-10.2233
▁등등	-10.2233
▁하나같이	-10.2236
오글	-10.2236
▁모르겠음	-10.2236
▁21	-10.2239
▁살아가는	-10.2239
거죠	-10.2242
▁낙	-10.2246
아닌가	-10.2247
▁명화	-10.2249
▁멋지	-10.2249
▁밝	-10.2258
▁쌍	-10.2265
때매	-10.2275
만듬	-10.2276
▁확인	-10.2279
▁잡아	-10.2282
덕에	-10.2285
ve	-10.2291
이름	-10.2293
아쉬웠	-10.2294
야한다	-10.2294
갑니다	-10.2303
야할	-10.2307
▁많은데	-10.2311
▁몰라	-10.2316
▁헬	-10.2319
닿	-10.232
▁분위기가	-10.2323
랫	-10.2326
U	-10.2326
룩	-10.2326
컴	-10.2326
▁제임스	-10.2326
▁sf	-10.2327
개그	-10.2328
▁극장가서	-10.2328
▁싸우는	-10.2328
▁높게	-10.2329
어지는	-10.2329
▁노래도	-10.2331
▁그저그런	-10.2331
했을때	-10.2335
쓰는	-10.2339
도대체	-10.2341
▁가정	-10.2341
▁싶을	-10.2343
▁기대이상	-10.2349
했지	-10.2358
▁수준의	-10.2362
▁다운	-10.2363
▁답답하고	-10.2366
게임	-10.2375
▁뽑	-10.2376
..^^	-10.2379
▁ᄌ	-10.238
▁감정이	-10.238
▁지나도	-10.2384
▁에로영화	-10.2384
▁재미없었다	-10.2385
는거야	-10.2386
▁뭐하나	-10.2389
▁승리	-10.2391
▁싸움	-10.2393
▁죽인	-10.2405
▁영상이	-10.2408
▁뛰어나	-10.2412
쓰레기영화	-10.2418
ᅲᅲᅲᅲᅲ	-10.2418
생각이	-10.2422
▁니들	-10.2422
▁개연성도	-10.2427
▁가져	-10.2428
▁남은	-10.2431
뻐	-10.2432
픽	-10.2433
겠죠	-10.2436
▁블록버스터	-10.2437
▁소소한	-10.2437
▁후속작	-10.2437
▁잔혹	-10.2438
▁감정이입	-10.2439
▁어쩜	-10.2441
받았	-10.2441
▁낚였다	-10.2443
▁레이	-10.2443
▁이따위	-10.2446
▁남자주인공	-10.2446
es	-10.2449
▁아역	-10.2449
▁외국	-10.2449
▁성격	-10.245
▁좋겠	-10.245
▁연극	-10.2453
▁의미가	-10.2456
▁재미있습니다	-10.2459
▁맡	-10.246
였으면	-10.2462
▁엉성하고	-10.2464
▁부실	-10.2465
대단	-10.2467
두고	-10.2467
장르	-10.2472
지나	-10.2482
었을	-10.2483
▁남자들	-10.2487
▁여운을	-10.2487
만하다	-10.249
▁내가본	-10.2491
▁기준	-10.2492
▁쉬	-10.2499
▁연출과	-10.2501
아까	-10.2505
▁예쁘고	-10.2518
영화인데	-10.2528
갓	-10.253
▁전설	-10.2535
▁정말이지	-10.2536
▁추리	-10.2549
벅	-10.2549
뎅	-10.2549
▁울컥	-10.2549
▁작위적	-10.2551
▁요리	-10.2552
▁결코	-10.2553
▁충실	-10.2553
▁데리고	-10.2554
▁캬	-10.2555
다음	-10.2558
▁오래된	-10.2567
▁길게	-10.2567
▁열연	-10.257
아가	-10.2581
었네요	-10.2581
영이	-10.2582
▁낮네	-10.2584
▁막장드라마	-10.2585
▁조카	-10.2588
믿	-10.2591
여주	-10.2595
▁p	-10.2596
현실을	-10.2605
▁볼게	-10.2615
▁과정	-10.2627
어이없	-10.2628
거같음	-10.2628
▁매력을	-10.263
스카	-10.2632
절대	-10.2633
려다	-10.2636
▁노래가	-10.2642
▁먼가	-10.2642
▁낮아	-10.2642
관객	-10.2648
▁무리	-10.2648
찡	-10.2648
벗	-10.2649
시기	-10.2649
없는영화	-10.2655
객	-10.2656
렵	-10.2658
▁됩니다	-10.2663
럭	-10.2663
▁살다살다	-10.2663
▁그만큼	-10.2668
▁감각	-10.267
▁적당히	-10.267
▁흔들	-10.267
▁찾아보	-10.2671
떨어진	-10.2671
▁최고임	-10.2675
▁두고	-10.2686
혼자	-10.2687
▁출연한	-10.2691
턴	-10.2692
▁잼나게	-10.2693
▁잘봤어요	-10.2694
▁만남	-10.2694
▁수많은	-10.2695
▁봅니다	-10.2703
주고싶다	-10.2703
▁안볼	-10.2703
▁마이	-10.2705
▁L	-10.2712
듣	-10.2712
어라	-10.2721
▁반전은	-10.2724
as	-10.2725
▁그당시	-10.2727
되었	-10.273
아빠	-10.2734
▁가슴을	-10.2734
▁냉	-10.2741
▁식상한	-10.2742
▁특이	-10.2742
못해	-10.2743
▁아래	-10.2744
될듯	-10.2744
없었	-10.275
▁가족영화	-10.2751
ᄏᄏᄏᄏᄏᄏᄏᄏᄏᄏᄏᄏ	-10.2752
▁의문	-10.2753
▁애들은	-10.2755
▁다운받아	-10.2758
▁결말을	-10.2759
▁봤네	-10.2762
이었습니다	-10.2763
▁새로	-10.2764
홀	-10.2766
섞	-10.2767
비디오	-10.2768
▁공포물	-10.2768
보셈	-10.277
벼	-10.2778
▁즐거웠	-10.2778
▁탄생	-10.2778
씬이	-10.2786
려나	-10.2787
▁f	-10.2796
▁엿	-10.2801
재미없음	-10.2802
스크	-10.2804
▁집중해서	-10.2805
▁가면	-10.2809
bb	-10.2812
년작	-10.2817
▁호구	-10.2819
▁보려	-10.2821
▁별로임	-10.2827
▁구성이	-10.2828
보소	-10.2829
되었다	-10.2831
점이상	-10.2832
▁매일	-10.2847
▁풍자	-10.285
▁죽이고	-10.2858
▁방식	-10.2859
깝	-10.286
번은	-10.2864
하더라	-10.2864
▁해라	-10.2874
씨는	-10.2876
했다면	-10.2876
▁기독교	-10.2877
▁처럼	-10.2878
▁인도	-10.2885
뇌	-10.2886
ut	-10.2887
▁뻔하	-10.2888
삶	-10.2888
아저씨	-10.289
me	-10.2892
엑	-10.2894
퓨	-10.2894
▁아류작	-10.2894
▁사운드	-10.2894
▁다양한	-10.2895
▁집착	-10.2895
▁짧은	-10.2896
▁위험	-10.2897
이뻐	-10.2898
▁아무런	-10.2898
▁돈을	-10.29
▁만들었는지	-10.2904
▁현실적이	-10.2914
낫	-10.2916
▁주인공은	-10.2918
▁살면서	-10.2924
▁궁금하다	-10.2926
뻔한	-10.2928
▁만한	-10.293
ᄍ	-10.293
▁생각했는데	-10.2938
지루함	-10.2938
▁까지	-10.2938
▁생긴	-10.2944
▁내용인지	-10.2946
먹은	-10.2962
▁살린	-10.2963
▁코드	-10.2968
▁낮게	-10.2969
▁변화	-10.2969
▁치고	-10.2971
▁안습	-10.2973
▁G	-10.2979
하진	-10.2989
▁먹는	-10.2992
▁이상하게	-10.2993
▁마지막장면	-10.2993
싫어	-10.2997
▁매력적	-10.3006
▁샘	-10.301
찮	-10.301
▁사상	-10.3011
▁뭘까	-10.3011
▁로버트	-10.3012
▁심지어	-10.3012
▁핵노잼	-10.3013
▁바랍니다	-10.3013
차이	-10.3014
영화입니다	-10.3018
▁담배	-10.302
▁60	-10.302
아쉬	-10.3021
▁볼수있는	-10.3024
▁예쁘다	-10.3031
▁잼잇	-10.3033
시오	-10.3037
후회	-10.3038
▁조절	-10.304
이후	-10.3042
▁신파	-10.3044
▁남네요	-10.3044
▁맞지	-10.3044
조금	-10.3045
여행	-10.3051
보지말	-10.3051
▁빼면	-10.3056
지않아	-10.3059
▁한국에서	-10.3061
▁반대	-10.3065
▁놀랍다	-10.3066
지말자	-10.3067
기법	-10.307
▁그자체	-10.307
법한	-10.307
는구나	-10.3076
▁몰랐다	-10.3078
▁밋밋	-10.308
인데도	-10.3092
시아	-10.3094
았지만	-10.3094
▁잘만들었	-10.3095
▁짐	-10.3098
▁혹시	-10.3101
▁때려	-10.3104
데요	-10.3114
▁책을	-10.3114
▁북	-10.3121
는대	-10.3122
▁원작에	-10.3126
▁보기에는	-10.3126
균	-10.3129
아버지	-10.3131
▁플롯	-10.3131
▁특수효과	-10.3131
▁니콜	-10.3132
▁앞뒤	-10.3132
▁당연히	-10.3135
들에	-10.3136
▁놀라운	-10.3137
▁낮지	-10.3138
할만한	-10.314
80	-10.3142
▁손에	-10.3147
평가	-10.3149
뭔	-10.3151
▁주기도	-10.3151
▁뭐니	-10.3154
▁한숨	-10.3156
후에	-10.3157
자신	-10.3158
언제	-10.3159
▁운명	-10.3164
▁m	-10.3164
어여	-10.3166
▁등장인물	-10.3166
점대는	-10.3176
않은	-10.3177
든지	-10.3177
▁대단하	-10.3182
▁생활	-10.3182
해주고	-10.3185
재밌어	-10.3185
▁코미디영화	-10.3186
▁휘	-10.3186
배우가	-10.32
▁형편없	-10.3203
40	-10.3214
▁망친	-10.3216
것만으로도	-10.3218
▁잼나	-10.3218
쳐서	-10.322
▁음식	-10.3222
것같은	-10.3229
▁빵	-10.323
▁199	-10.3236
▁신비	-10.3237
▁귀엽다	-10.3238
▁왤케	-10.3251
긋	-10.3251
▁끔찍	-10.3251
▁교과서	-10.3251
▁러시아	-10.3251
▁거리	-10.3252
톤	-10.3253
▁짜증만	-10.3255
▁첫사랑	-10.3257
중독	-10.3259
▁여자친구	-10.326
▁폐	-10.3261
▁처제	-10.3264
▁무료	-10.3267
▁좋겠네요	-10.3268
했었	-10.3269
있었다	-10.3271
▁주제를	-10.3273
▁아니지	-10.3273
!!!!!!!!!!!!!!!!	-10.3275
▁잠이	-10.3277
▁꽤나	-10.3277
▁재미도없고	-10.3278
▁느껴지	-10.328
▁만들수	-10.3281
▁아쉽지만	-10.3282
le	-10.3284
▁부분도	-10.3286
보인다	-10.3286
▁마지막까지	-10.3292
▁여주가	-10.3294
로드	-10.3296
긴하지만	-10.3298
▁않아서	-10.3299
▁교훈을	-10.33
였나	-10.331
▁책임	-10.331
▁피해	-10.331
▁어울리는	-10.3312
표정	-10.3313
▁좀비영화	-10.3315
필요없	-10.3316
드가	-10.3323
이여	-10.3325
▁곧	-10.3326
오르	-10.3328
수없는	-10.3329
육	-10.333
하다고	-10.3332
씀	-10.3334
▁연기력은	-10.3334
▁소설을	-10.3336
▁없으면	-10.3338
▁때문	-10.3345
▁맞추	-10.3347
▁몽	-10.3348
▁불쌍하다	-10.335
▁넘게	-10.3356
▁일반	-10.3356
▁잘하고	-10.3357
해야할	-10.3369
▁가벼운	-10.3373
▁반드시	-10.3373
▁뱀파이어	-10.3373
▁약간의	-10.3381
▁담겨	-10.3382
팀	-10.3384
▁어느정도	-10.3385
▁봤을까	-10.3385
화이팅	-10.3386
긴장감	-10.3386
▁안맞는	-10.3386
▁어처구니	-10.3387
좋았다	-10.3391
사를	-10.3392
▁쪽	-10.3394
것처럼	-10.3395
▁따분	-10.3399
▁순수함	-10.34
▁있네	-10.34
세여	-10.3404
▁아까웠다	-10.3406
라는걸	-10.3407
부분은	-10.3409
▁신선하	-10.341
▁많아서	-10.3411
▁있다니	-10.3414
▁뒤에	-10.3414
▁심장	-10.3417
▁최고로	-10.3422
▁여전	-10.3424
▁포스	-10.3425
스토	-10.3426
▁무엇	-10.3427
▁먹어	-10.3427
▁짜증나서	-10.3428
▁폐지	-10.3429
뿐이다	-10.3432
▁정작	-10.3433
ᄀᄀ	-10.3438
▁배신	-10.3442
▁웃겼	-10.3447
▁모른다	-10.3452
▁자체는	-10.3455
▁떨어지고	-10.3458
▁당신은	-10.3459
게하는	-10.3461
▁타고	-10.3462
▁욕심	-10.3465
▁처음에는	-10.3469
▁내용과	-10.3473
▁자리	-10.3475
▁봤어	-10.3481
할것	-10.3483
▁시청률이	-10.3488
▁보다는	-10.3491
▁으리	-10.3491
▁1,2	-10.3492
▁역사를	-10.3493
모르겟	-10.3493
▁안본	-10.3494
▁고등학교	-10.3496
▁어설프고	-10.3496
▁임팩트	-10.3496
▁스티븐	-10.3496
▁주윤발	-10.3496
▁짜집기	-10.3497
▁인내심	-10.3497
▁유일한	-10.3497
었네	-10.3498
▁W	-10.3504
▁상어	-10.3504
▁스토리의	-10.3506
▁일부러	-10.3506
▁태어나서	-10.3507
▁여자주인공	-10.3508
▁크리스	-10.3509
▁그야말로	-10.3509
빌	-10.3509
않다	-10.3511
스토리도	-10.3516
아무	-10.3517
류의	-10.3517
▁말하고자	-10.3517
당시	-10.3518
▁살리	-10.3519
▁하나로	-10.3522
졸작	-10.3525
▁아름답게	-10.3525
▁못보겠	-10.3534
아프	-10.3536
하는영화	-10.3541
ᄏᄏᄏᄏᄏᄏᄏᄏᄏᄏᄏ	-10.3546
달아	-10.3547
▁엉망이	-10.3548
▁모든걸	-10.3549
▁키스	-10.3551
▁만든거	-10.3554
▁그립다	-10.3554
하니까	-10.3562
▁포스터가	-10.3564
▁불편한	-10.3572
▁=	-10.3572
▁귀여	-10.3578
과는	-10.3582
▁실수	-10.3584
▁볼때	-10.3586
할거	-10.3587
맘	-10.3588
야겠다	-10.3595
재미도	-10.3596
▁다시보니	-10.3597
트로	-10.3598
▁엘	-10.3601
▁한편의	-10.3603
또한	-10.3609
▁업	-10.3613
▁아닐	-10.3616
려다가	-10.3616
꾼	-10.3618
▁아까운영화	-10.362
▁좋네	-10.3621
딘	-10.3621
▁해리포터	-10.3621
^-^	-10.3621
▁쓸데없이	-10.3621
▁깜짝	-10.3622
▁장국영	-10.3622
▁ᄅᄋ	-10.3622
▁러닝타임	-10.3622
▁친구가	-10.3623
▁줄수	-10.3627
▁첨엔	-10.3633
▁이야기는	-10.3633
▁삶이	-10.3635
▁훈훈	-10.3636
▁나름대로	-10.3637
보는게	-10.3638
▁이딴걸	-10.3642
벤	-10.3642
▁했으면	-10.3644
▁생각으로	-10.3645
추억	-10.3648
같은영화	-10.365
▁가수	-10.3651
고싶은	-10.3653
▁목적	-10.3655
▁잘하는	-10.3662
▁고마	-10.3663
▁명작을	-10.3664
▁강렬한	-10.3667
▁어디에	-10.3668
방식	-10.3673
▁상대	-10.3679
▁시리즈는	-10.368
▁상업	-10.3681
▁많은걸	-10.3681
▁명장면	-10.3682
웨이	-10.3683
라지만	-10.3686
이러	-10.3694
없네요	-10.3695
▁아름답	-10.3696
제로	-10.3704
▁롤	-10.3704
▁이해할수	-10.3705
▁나랑	-10.3712
▁난해하	-10.3716
▁ᄍᄍᄍ	-10.3722
▁재밌지	-10.3725
맞는	-10.3728
▁받은	-10.3729
오브	-10.3731
▁쩔	-10.3734
높은	-10.3734
▁소재도	-10.3736
▁보아	-10.3736
눌	-10.3748
밴	-10.3748
▁you	-10.3748
▁배트맨	-10.3748
▁설득력	-10.3748
깃	-10.3748
▁심형래	-10.3748
▁유일하게	-10.3748
▁of	-10.3748
▁동심	-10.375
▁착각	-10.375
▁빠른	-10.3752
▁할아버지	-10.3753
▁로코	-10.3757
▁근래	-10.3758
ᅮᅲ	-10.3761
▁희망을	-10.3762
▁시간아깝다	-10.3763
▁어른이	-10.3764
▁죽었	-10.3764
▁어렵다	-10.3771
▁영화화	-10.3772
꿈	-10.3775
걍	-10.3775
느껴	-10.3777
포스터	-10.3779
▁멋졌	-10.378
▁쓰고	-10.3781
목소리	-10.3782
웃김	-10.3784
같아서	-10.3791
보여주	-10.3791
▁보던	-10.3796
▁염	-10.3797
이든	-10.3797
▁바다	-10.3806
레스	-10.3811
▁영화라는	-10.3817
▁틀어	-10.3817
▁하다가	-10.3822
같지	-10.3824
▁수작이다	-10.3825
▁기회	-10.3826
▁엔딩이	-10.3829
▁재미없어서	-10.383
▁소년	-10.383
100	-10.3835
아라	-10.3836
15	-10.3838
▁연기자	-10.3839
빠져	-10.3842
능력	-10.3843
▁수입	-10.3853
주기	-10.3853
▁격	-10.3857
▁조선	-10.3861
이었던	-10.3862
낭	-10.3868
쩜	-10.3871
▁머리가	-10.3872
▁괜찮았다	-10.3875
셧	-10.3876
▁dvd	-10.3876
▁제니퍼	-10.3876
▁내생에	-10.3877
갠적으로	-10.3878
▁처음에	-10.3879
못하는	-10.3879
▁웃으면서	-10.388
▁배경음악	-10.388
▁들고	-10.3881
▁응원	-10.3881
구리	-10.3881
듯하다	-10.3882
▁이끌어	-10.3882
빙	-10.3884
V	-10.3884
있지	-10.3887
▁최고의영화	-10.3888
▁프리	-10.3889
▁따뜻하고	-10.3893
▁울리는	-10.3896
와의	-10.3898
▁나에겐	-10.3901
▁꼬마	-10.3902
▁괜찮음	-10.3903
▁케이블에서	-10.3903
에대해	-10.3904
임을	-10.3906
▁느낌의	-10.3906
썼	-10.3908
춤	-10.3908
▁영화인지	-10.3908
시나리오	-10.3909
엄청	-10.3911
▁영상과	-10.3913
곳에	-10.3914
▁기억나는	-10.3916
▁새벽에	-10.3923
역사	-10.3928
▁다시는	-10.3928
모자	-10.3932
일듯	-10.3933
테러	-10.3935
▁보다니	-10.3941
▁본게	-10.3942
받을	-10.3944
▁아냐	-10.3954
배우들이	-10.3962
▁밀려	-10.3963
▁이상하고	-10.3966
▁오락영화	-10.3969
▁한번도	-10.397
500	-10.3971
▁배우들은	-10.3972
▁살아있	-10.3974
됐다	-10.3976
먹어	-10.3979
▁흐르는	-10.3989
적이지	-10.3996
▁정보	-10.3996
▁가족이	-10.4003
▁장면도	-10.4003
뷰	-10.4005
미국	-10.4006
▁숨겨진	-10.4006
쫓	-10.4006
▁이소룡	-10.4006
▁홍상수	-10.4006
▁망했	-10.4007
▁빵빵	-10.4007
▁돋보이는	-10.4009
▁잤다	-10.401
▁잘만들	-10.4013
엌	-10.4013
좋은영화	-10.4014
▁어째	-10.4014
▁두번째	-10.4017
▁동양	-10.4024
▁이런건	-10.4024
알고	-10.4028
할뿐	-10.4031
찰	-10.4032
말아먹	-10.4034
▁엄마가	-10.4036
▁후에	-10.4037
었나	-10.4037
▁강한	-10.4039
몸	-10.404
궁	-10.404
▁봐야하는	-10.4041
R	-10.4041
칼	-10.4043
귀엽	-10.4045
맞추	-10.4046
▁남았	-10.4046
▁사랑해	-10.4046
느끼	-10.4051
▁저급	-10.4051
▁얼굴이	-10.4052
▁한국의	-10.4052
섹	-10.4053
연기는	-10.4057
▁생각할	-10.4057
웃겨	-10.4057
▁싶어요	-10.4061
지훈	-10.4062
..............	-10.4063
▁감동은	-10.4064
▁포인트	-10.4072
멜로	-10.4074
▁짜증이	-10.4076
▁안간다	-10.4081
▁어디가	-10.4085
▁ᄃᄃᄃ	-10.4086
▁슬펐	-10.4086
▁재밌어서	-10.4087
▁부부	-10.4091
올라	-10.4092
▁꿀	-10.4094
▁생겼	-10.4096
▁^	-10.4102
▁하아	-10.4116
▁여자의	-10.4119
▁읽어	-10.4125
트가	-10.4128
▁놓고	-10.4131
▁아깝고	-10.4133
젊	-10.4135
아까운	-10.4137
▁이해를	-10.4137
▁조니뎁	-10.4138
▁대통령	-10.4138
▁할리우드	-10.4138
뢰	-10.4138
젖	-10.4138
▁컨셉	-10.4138
▁사투리	-10.4138
분의	-10.4138
▁제이슨	-10.4138
▁늑대	-10.4138
▁영환데	-10.4139
▁맞춰	-10.414
▁정상	-10.4142
▁과학	-10.4143
재미있게	-10.4144
▁의사	-10.4146
▁하는게	-10.4146
▁다섯	-10.4148
하는건지	-10.4148
약한	-10.4148
▁재능	-10.4153
▁잘못된	-10.4157
▁재미로	-10.4159
조연	-10.4162
▁아쉬움이	-10.4163
놀이	-10.4167
▁독일	-10.4168
▁톰	-10.417
치고는	-10.4171
▁혹시나	-10.4172
▁현실과	-10.4176
▁우연	-10.4176
▁없었음	-10.4179
앤	-10.418
▁넣어	-10.418
캐스팅	-10.4181
▁없나요	-10.4181
분위기	-10.4182
▁섬	-10.4182
하지마	-10.4182
▁검색	-10.4185
▁갔다	-10.4185
▁오글거리	-10.4186
▁난잡	-10.4187
그럼	-10.4191
▁영화인가	-10.4196
보긴	-10.4201
으려고	-10.421
▁주제가	-10.4218
▁초딩때	-10.4225
▁인생에	-10.4231
▁재밋어요	-10.4231
▁가능한	-10.4233
▁사용	-10.424
하군	-10.4243
번에	-10.4246
▁마음으로	-10.4249
부터가	-10.4253
▁재미있을	-10.4254
보시길	-10.4254
▁삼류영화	-10.4261
▁이상해	-10.4263
▁시간만	-10.4266
갈때	-10.4267
납	-10.4269
▁연인	-10.4271
뚝	-10.4271
랭	-10.4271
곱	-10.4271
▁움직이	-10.4271
▁컴퓨터	-10.4271
▁떨어짐	-10.4271
▁걱정	-10.4273
▁여러번	-10.4278
▁사라지	-10.4279
▁언제봐도	-10.4279
▁실화를	-10.4279
▁땡	-10.4284
▁흑	-10.4284
▁디워	-10.4284
▁단순히	-10.4285
▁하길래	-10.4287
▁슈	-10.4292
▁개노잼	-10.4295
장면은	-10.4296
▁충분	-10.4297
▁마약	-10.4301
▁그것도	-10.4303
어색	-10.4305
lo	-10.4307
때까지	-10.4311
▁예능	-10.4313
▁넘치	-10.4315
▁목소리가	-10.4316
롤	-10.4318
었는지	-10.4321
▁클레멘타인	-10.4324
스럽지	-10.4333
▁다르게	-10.4336
▁장면들	-10.4336
▁불쌍한	-10.4339
▁어색하고	-10.4344
나왓	-10.4346
극장에서	-10.4347
▁있다고	-10.435
바라	-10.4353
▁앞에	-10.4354
▁달려	-10.4354
▁발상	-10.4356
▁얘	-10.4357
▁가족들	-10.4359
있어요	-10.4359
어가는	-10.4365
▁X	-10.4368
미가	-10.437
▁제목만	-10.4371
▁장면을	-10.4371
▁옆에	-10.4374
▁하네	-10.4375
에게는	-10.438
▁버리	-10.438
등록	-10.4381
▁F	-10.4384
▁쉽지	-10.439
en	-10.4393
▁진수	-10.4396
함에	-10.4403
폼	-10.4405
덩	-10.4406
랙	-10.4406
갱	-10.4406
랩	-10.4406
▁박진감	-10.4406
▁익숙	-10.4406
▁희대의	-10.4406
▁뭐하자는	-10.4408
▁실험	-10.441
분만에	-10.4411
▁처절	-10.4412
▁서양	-10.4412
▁공감할	-10.4414
줄알았는데	-10.4415
물로	-10.4417
합시다	-10.4419
▁짜증남	-10.4423
줄은	-10.4429
한건지	-10.443
보기싫	-10.4434
갔는데	-10.4437
▁봤다면	-10.444
▁모르겠네요	-10.4448
▁궁금해서	-10.4451
기도하고	-10.4452
▁보이지	-10.4458
▁사랑해요	-10.4461
▁같지	-10.4461
▁이름이	-10.4461
▁유치해	-10.4464
▁잼있음	-10.4464
▁터미네이터	-10.4464
▁지겹다	-10.4468
▁기타	-10.4468
▁마니	-10.4472
▁있으	-10.4472
▁별로고	-10.4474
▁억지스럽	-10.4478
▁멋지고	-10.4479
▁소화	-10.4482
조아	-10.4484
알아	-10.4485
▁끝에	-10.4493
▁점수는	-10.4494
안돼	-10.4498
모르고	-10.4504
▁조잡	-10.4509
▁ᅲᅲᅲᅲ	-10.451
▁세상이	-10.4513
▁만들기	-10.4521
▁안봐도	-10.4528
▁줍니다	-10.4536
략	-10.4537
▁내게	-10.4537
▁늦게	-10.4543
닷	-10.4543
쟈	-10.4543
켄	-10.4543
▁이토록	-10.4543
▁중심	-10.4544
▁이뻐서	-10.4544
▁나네요	-10.4548
어용	-10.4548
▁상영관	-10.455
▁판단	-10.4551
▁매니아	-10.4551
▁불안	-10.4555
잖아요	-10.4561
▁최고봉	-10.4563
♥♥♥♥	-10.4566
▁괜찮아	-10.4566
▁갓	-10.4567
▁봐도봐도	-10.4567
시원	-10.4573
자들이	-10.4573
▁그럴듯	-10.4577
▁어우	-10.458
겨운	-10.4583
▁높아서	-10.4585
▁그동안	-10.4585
▁14	-10.4593
▁맛이	-10.4594
▁인형	-10.4595
곳에서	-10.4597
촌	-10.4601
탑	-10.4602
▁주연배우	-10.4603
▁반전을	-10.4608
▁아니라고	-10.4612
바람	-10.4612
내용은	-10.4614
▁거장	-10.4616
신고	-10.4616
스러웠	-10.4624
기에는	-10.4625
▁논리	-10.4626
▁이루	-10.463
▁알겠다	-10.4634
▁느꼈	-10.4634
▁인생이	-10.4645
제대로	-10.4648
▁아이들과	-10.4651
애들이	-10.4653
▁감독을	-10.4656
▁났	-10.466
▁이런영화는	-10.466
▁멋있는	-10.4662
있지만	-10.4664
차별	-10.4667
자들의	-10.4668
앉	-10.4677
뭐냐	-10.4678
▁대신	-10.4679
팍	-10.4682
▁네티즌	-10.4682
넬	-10.4682
앨	-10.4682
▁쓸데없는	-10.4682
웟	-10.4682
▁드디어	-10.4682
▁도무지	-10.4682
▁빅	-10.4685
▁하시	-10.469
▁거북	-10.4694
티가	-10.4695
▁한방	-10.4696
▁재밋음	-10.4697
▁내용전개	-10.4697
열받	-10.4703
재밌는	-10.4705
▁하품	-10.4706
▁부담	-10.4708
여운이	-10.4709
▁집중이	-10.4709
햇는데	-10.4723
▁하지원	-10.4723
▁쭉	-10.4727
~~!!	-10.4732
못하고	-10.4733
▁정신없	-10.4734
▁아파	-10.4738
▁정신병자	-10.4741
▁재미없을	-10.4741
었을까	-10.4745
드립	-10.4746
▁하하	-10.4746
것보다	-10.4752
▁상관	-10.4754
▁김치	-10.4766
텐	-10.4769
▁본지	-10.4785
있던	-10.4792
하지말고	-10.4793
할수가	-10.4793
보게되	-10.4798
▁박수	-10.48
▁말자	-10.4802
▁배우도	-10.4806
▁사랑한다	-10.4807
▁작품입니다	-10.4809
▁to	-10.481
▁최소	-10.4816
으신	-10.4817
▁여주인공이	-10.4817
하시길	-10.4819
▁오브	-10.4821
툭	-10.4823
▁오프닝	-10.4823
▁아놀드	-10.4823
▁Good	-10.4823
▁뭥미	-10.4823
▁하정우	-10.4823
▁흑백	-10.4824
▁폭풍	-10.4825
▁재개봉	-10.4828
▁현실감	-10.4828
▁만화책	-10.4829
▁폭발	-10.483
▁2000	-10.4831
▁떼	-10.4831
▁서울	-10.4834
▁이루어	-10.4834
▁공짜로	-10.4838
자마자	-10.4838
▁괜찮았는데	-10.484
▁무엇인가	-10.4841
▁재미있어	-10.4841
▁없게	-10.4843
▁보라	-10.4847
▁짜증나고	-10.4848
▁반담	-10.4848
▁배경이	-10.4849
~~^^	-10.4851
▁아우	-10.4853
▁배우는	-10.4855
▁갑니다	-10.4862
▁평소	-10.4863
▁뭣	-10.4868
▁공간	-10.4871
분을	-10.4873
▁죽고	-10.4877
▁유발	-10.4886
되요	-10.489
포인트	-10.4894
불쌍	-10.4895
▁이드라마	-10.49
▁설정이	-10.4905
▁잊고	-10.4911
▁진부	-10.4917
렬	-10.4921
아무리	-10.4922
하기에	-10.4927
▁즐	-10.4931
▁사람도	-10.4932
▁부정	-10.4936
만큼이나	-10.4942
▁겁	-10.4943
잖	-10.4946
윈	-10.4951
▁허술한	-10.4952
비가	-10.4953
껀	-10.4966
▁나레이션	-10.4966
썸	-10.4966
덩어리	-10.4966
▁찾는	-10.4966
▁달콤	-10.4967
▁보게된	-10.4967
▁꿈꾸	-10.4968
▁평균	-10.4968
▁각색	-10.4971
▁환경	-10.4972
▁스릴도	-10.4972
▁적어도	-10.4972
▁극복	-10.4972
▁부탁	-10.4974
▁무겁	-10.4975
▁만약	-10.4976
같아	-10.4977
힘들	-10.4985
▁알겠	-10.4986
점주	-10.4987
▁소중함을	-10.4988
▁탈출	-10.4988
▁유행	-10.4989
류영화	-10.4991
▁잔잔하게	-10.4992
▁이번에	-10.4993
▁어거지	-10.4994
오래	-10.5004
씁쓸	-10.5006
▁관련	-10.5006
▁시작부터	-10.5011
▁ᄒᄒᄒᄒ	-10.5013
▁같고	-10.5017
소녀	-10.5017
▁못보	-10.5025
▁기대없이	-10.5031
▁케릭터	-10.5033
상영	-10.5034
휘	-10.5041
께요	-10.5042
▁만들어서	-10.5042
▁볼만했다	-10.5044
▁결론은	-10.5044
뭘	-10.5045
개인적으로	-10.5045
▁놀랍	-10.5045
▁여자애	-10.5045
▁남기	-10.5046
비슷	-10.5046
범죄	-10.5048
▁가득한	-10.5049
▁영상미가	-10.505
▁따뜻해	-10.505
▁연출은	-10.5052
▁없냐	-10.5052
셔야	-10.5058
▁강렬	-10.5061
▁정신병	-10.5063
앞으로	-10.5064
▁신의	-10.5065
겠는데	-10.5071
소름	-10.5075
▁마지막회	-10.5076
멋있	-10.5076
▁테러	-10.5076
멜	-10.5077
기억이	-10.5079
▁따위	-10.5086
▁벤	-10.5087
거에요	-10.509
▁일본인	-10.5092
빠진	-10.5094
닮	-10.5097
▁육	-10.5098
서야	-10.5098
▁굴	-10.5103
▁기가	-10.5109
▁명불허전	-10.5111
▁우뢰매	-10.5111
걷	-10.5111
쉴	-10.5111
▁리얼리티	-10.5111
▁명복을	-10.5111
발연기	-10.5111
▁민폐	-10.5113
▁어울리지	-10.5113
^^*	-10.5113
▁명대사	-10.5115
▁끌고	-10.5116
▁곰	-10.5119
▁돈내고	-10.5119
▁믿고보는	-10.512
시네	-10.5121
▁요새	-10.5122
▁빛을	-10.5122
져요	-10.5125
▁오랫만에	-10.5128
▁니가	-10.513
▁영화라니	-10.5135
▁답이	-10.5136
▁유쾌하게	-10.5137
▁보는거	-10.5138
였지	-10.5141
▁손발	-10.5147
▁가고	-10.515
▁히어로	-10.5154
달라	-10.5155
러스	-10.5155
▁시대에	-10.5157
▁초등학교	-10.5157
여운	-10.5158
▁담은	-10.516
▁씹	-10.5162
▁않았지만	-10.5162
특별	-10.5162
볼수있	-10.5165
▁눈물나	-10.5168
▁본건데	-10.5169
-_-;	-10.5169
것같은데	-10.5175
존나	-10.5177
▁전쟁의	-10.5183
드만	-10.5184
▁난리	-10.5185
▁돼지	-10.5187
▁유덕화	-10.519
왔어요	-10.519
멍	-10.5191
▁아들이	-10.5193
아니고	-10.5193
▁좋을듯	-10.5194
낮은	-10.5195
▁좋다고	-10.5197
▁사과	-10.5199
▁세번	-10.5199
▁안될	-10.5202
맞음	-10.5205
래도	-10.5208
▁의지	-10.5211
맞고	-10.5215
▁정도면	-10.5216
늙	-10.5218
▁일본은	-10.5218
▁숨어	-10.5221
▁탐	-10.5221
므	-10.5224
이딴	-10.5227
놨네	-10.523
분들은	-10.5234
▁의상	-10.5235
외로	-10.5235
▁받고	-10.5238
▁숙	-10.5244
하거나	-10.5248
▁여자는	-10.5249
딜	-10.5253
않음	-10.5253
▁포스터에	-10.5257
▁송강호	-10.5258
▁인터넷	-10.5258
▁자동차	-10.5258
▁내생애	-10.5258
▁불가능	-10.5258
▁누군지	-10.5258
▁동시에	-10.5258
시키지	-10.5259
▁죄송	-10.526
마누라	-10.526
글자	-10.5264
▁재미있는데	-10.5265
▁장난하냐	-10.5265
감독은	-10.5266
▁화나	-10.5267
▁자극적인	-10.5268
▁보시면	-10.5269
▁유럽	-10.5272
으시	-10.5276
▁거품	-10.5277
▁살인마	-10.5278
성과	-10.5279
▁사실을	-10.5281
▁파괴	-10.5281
그러나	-10.5281
느낌이	-10.5282
▁나무	-10.5284
▁보았는데	-10.5288
▁믿기지	-10.529
▁따라가	-10.529
▁절정	-10.5298
▁평화	-10.53
▁만난	-10.5305
▁원조	-10.5305
▁아깝네	-10.5309
▁잠시	-10.531
▁적당한	-10.531
해지고	-10.5313
▁녹아	-10.5314
추격	-10.5323
가면서	-10.5325
▁아니었다	-10.5327
쁜	-10.5327
▁좋지	-10.5331
▁매미	-10.5334
▁분들이	-10.5338
브리	-10.5339
나보다	-10.534
봐야지	-10.5342
▁떡	-10.5343
즐	-10.5347
새롭	-10.5348
▁갖다	-10.535
그렇게	-10.535
코믹	-10.5351
▁땜에	-10.5352
나름	-10.5358
▁웃을	-10.5361
노답	-10.5362
봣다	-10.5364
▁묻어	-10.5369
하자면	-10.5369
쩐다	-10.5372
찾아	-10.5372
▁황당한	-10.5376
행복	-10.5376
▁인간은	-10.5381
스케	-10.5382
없나	-10.5384
▁일본의	-10.5391
▁다시보고	-10.5395
▁땅	-10.5399
▁한국영화의	-10.54
▁전화	-10.5401
▁쯔양	-10.5402
▁자아	-10.5405
꼈	-10.5406
셉	-10.5407
욤	-10.5407
▁짐캐리	-10.5407
똘	-10.5407
룰	-10.5407
▁가까운	-10.5407
램	-10.5407
▁깡패	-10.5407
▁우려먹	-10.5407
보느니	-10.5408
▁보고싶어	-10.5408
▁ᄌᄂ	-10.5409
▁축구	-10.541
▁좋았을텐데	-10.541
스텝	-10.541
▁어쩌면	-10.5411
보고싶어요	-10.5411
▁역량	-10.5411
▁일부	-10.5413
▁찍고	-10.5414
▁전반적으로	-10.5414
▁아무도	-10.5414
▁알았네	-10.5415
해놓고	-10.5416
▁액션신	-10.5417
답니다	-10.5417
분동안	-10.5422
굳굳	-10.5424
ᄏᄏᄏᄏᄏᄏᄏᄏᄏᄏᄏᄏᄏ	-10.5425
▁치유	-10.5437
아니면	-10.5439
▁드러	-10.544
▁스토리전개	-10.5442
▁친구랑	-10.5447
▁벨	-10.545
▁탄탄하고	-10.5451
보고있어요	-10.5455
▁오락	-10.5455
▁아깝네요	-10.5458
▁고어	-10.5458
▁답답함	-10.5459
▁이보다	-10.5461
▁한국판	-10.5462
▁쩔어	-10.5462
광고	-10.5464
가네	-10.5467
편에서	-10.5467
▁영화였음	-10.547
▁봐야지	-10.5474
보내	-10.5474
▁놓치	-10.5474
굳	-10.5478
돌리	-10.5478
낚	-10.5478
▁재미없다고	-10.5479
▁만들었나	-10.5479
▁무한	-10.5487
▁왜곡	-10.5493
꼽	-10.5502
섬	-10.5504
잭	-10.5505
▁포스터만	-10.5507
▁봉	-10.5509
델	-10.5509
▁가시	-10.5513
▁등장인물들	-10.5514
▁:)	-10.5514
▁읽고	-10.5522
는거지	-10.5524
재미있어요	-10.5525
▁무섭고	-10.5526
순위	-10.553
아이들	-10.5534
▁명연기	-10.5535
나쁜	-10.5537
스토리가	-10.5537
▁벌어	-10.5538
▁그립	-10.555
▁겨울	-10.5556
퀄	-10.5558
▁듭니다	-10.5559
▁쏟아	-10.5559
▁아무생각없이	-10.5559
몫	-10.5559
▁양아치	-10.5559
▁이해불가	-10.5559
▁첩보	-10.5559
▁정우성	-10.5559
▁역겨운	-10.556
▁됬	-10.5562
▁은근히	-10.5564
특집	-10.5567
▁코배	-10.5571
▁만들어낸	-10.5573
▁여친	-10.5574
▁소장	-10.5577
▁액션과	-10.5579
▁기존	-10.5579
▁삐	-10.5579
▁이런류의	-10.558
▁한개도	-10.5582
꺼야	-10.5583
▁사람이라면	-10.5587
▁생에	-10.559
할줄	-10.5592
미친	-10.5593
▁과장	-10.5594
▁애매	-10.5594
▁생각난다	-10.5596
▁동네	-10.5597
하시고	-10.5597
▁전개와	-10.5601
▁시나리오가	-10.5601
▁본듯	-10.5601
▁강간	-10.5607
▁매력에	-10.5608
줄알았	-10.5611
▁싶었다	-10.5614
▁생명	-10.5622
싫은	-10.5622
귀신	-10.5624
▁털	-10.5625
▁P	-10.5626
▁그것이	-10.5628
흑	-10.563
나오네	-10.5634
▁표현할	-10.5635
비스	-10.5639
▁느낌은	-10.5641
▁오지	-10.5643
▁귀여움	-10.5644
볼까	-10.565
해줄	-10.5652
천원	-10.5653
▁떨어져	-10.5659
▁되네요	-10.566
▁사람들에게	-10.566
▁만들어주	-10.5661
갖	-10.5663
▁지겹	-10.5664
라인	-10.5665
였을	-10.567
심을	-10.5672
재미없어	-10.5676
시면	-10.5678
긴다	-10.5682
▁명배우	-10.5683
엇는데	-10.5685
자식	-10.5691
▁팀	-10.5699
뭉	-10.5712
븐	-10.5712
톡	-10.5712
▁빕니다	-10.5712
답게	-10.5712
랴	-10.5712
▁화장실	-10.5712
렀	-10.5712
▁스포츠	-10.5712
괜찬	-10.5713
▁블랙코미디	-10.5714
▁헛웃음	-10.5714
▁왠만한	-10.5715
▁즐길	-10.5716
할수있는	-10.5718
▁이것보단	-10.5718
선수	-10.572
밖	-10.5721
▁기적	-10.5722
▁말아야	-10.5724
이예요	-10.5728
아직도	-10.5728
▁여태	-10.5729
▁개똥	-10.5729
▁첨부터	-10.5731
▁담긴	-10.5733
▁100%	-10.5736
▁그것을	-10.5737
▁다신	-10.5744
처리	-10.5747
▁영원한	-10.5751
▁재난	-10.5752
▁나오는데	-10.5757
안된다	-10.5757
ck	-10.5758
▁최소한	-10.5758
▁해보	-10.5758
으러	-10.5761
▁반전에	-10.5761
에비해	-10.5768
꺼면	-10.5768
▁잔잔하면서	-10.577
▁사랑합니다	-10.578
▁생각도	-10.5795
▁길이	-10.5799
게만드는	-10.5803
▁책으로	-10.5805
th	-10.5806
▁나이가	-10.5808
▁쏘	-10.5809
▁느리	-10.5815
겠다는	-10.582
평론가	-10.5825
묻	-10.5825
TV	-10.5827
▁아동	-10.5829
▁아프다	-10.5829
같아요	-10.5831
▁밤에	-10.5831
갈수록	-10.5833
!!!!!!	-10.5835
▁찾아서	-10.5837
선택	-10.5837
▁덤	-10.5838
▁볼려고	-10.5842
▁영화예요	-10.5844
무엇	-10.5847
▁시대의	-10.5852
50	-10.5852
▁진지한	-10.5856
▁각자	-10.5856
▁류승범	-10.5869
▁웰메이드	-10.5869
ᅢ	-10.5869
▁어두운	-10.5869
미스테리	-10.5869
▁호기심	-10.5869
▁혐오	-10.5869
▁고뇌	-10.5871
▁극단적	-10.5872
▁빛나는	-10.5873
▁거기다	-10.5874
▁앉아	-10.5875
시대에	-10.5875
▁생기	-10.5875
▁은근	-10.5876
▁상징	-10.5876
▁고독	-10.5876
▁무섭지	-10.5878
▁버려	-10.5881
▁교훈도	-10.5882
▁억지감동	-10.5882
▁볼만합니다	-10.5886
▁ᄃ	-10.5886
사실	-10.589
▁옳	-10.5895
▁예술영화	-10.5898
▁적절한	-10.5899
▁비슷하	-10.5901
▁안보는게	-10.5901
▁좋앗	-10.5902
므로	-10.5904
형제	-10.5906
▁울면서	-10.5907
▁작품이라	-10.5908
▁천국	-10.5911
▁알았음	-10.5912
▁느낌이다	-10.5915
▁허무한	-10.5916
▁뜬금없는	-10.5924
▁쪼	-10.5925
시간동안	-10.5927
▁아진짜	-10.5928
▁날아	-10.5937
▁못보겠다	-10.5943
것같아	-10.5943
당하는	-10.5946
▁세월	-10.5948
▁유치해서	-10.5948
▁반영	-10.595
▁형제	-10.5951
타고	-10.5955
▁벗어나	-10.5956
앞	-10.5961
▁뭐여	-10.5969
스티	-10.5971
▁시점	-10.5975
었지	-10.5975
맞아	-10.5976
▁잔잔하	-10.5979
▁소개	-10.5984
코메디	-10.599
▁빙	-10.5991
▁명작은	-10.5999
▁다시보기	-10.6005
모를	-10.6007
연기를	-10.6008
너무너무	-10.601
삭	-10.6013
지못한	-10.6016
▁마지막엔	-10.6019
▁자기가	-10.6019
▁김정	-10.6019
측	-10.602
시키고	-10.6021
▁탓	-10.6025
닫	-10.6026
덴	-10.6027
댕	-10.6027
홈	-10.6027
▁제시카	-10.6027
▁배급사	-10.6028
▁이도저도	-10.6028
였네요	-10.6028
▁풋풋한	-10.6028
아까워	-10.6029
▁잘한다	-10.6029
전혀	-10.603
▁유지	-10.603
편집	-10.6032
▁장애인	-10.6033
▁라스트	-10.6034
al	-10.6036
▁삭제	-10.6036
▁절망	-10.6036
▁뉴	-10.6039
▁전체적인	-10.6039
▁신인	-10.6047
▁제목을	-10.6047
▁싶었던	-10.6049
점부터	-10.6051
▁이별	-10.6052
▁괜찮았음	-10.6053
▁다행이다	-10.6056
▁백인	-10.6057
에다가	-10.606
있으면	-10.6063
▁따뜻	-10.6065
▁초반부	-10.6069
▁실감	-10.6073
▁나오네	-10.6078
작이라	-10.6079
▁부족함	-10.6081
▁자극적	-10.6084
▁소재의	-10.6092
▁드네요	-10.6094
▁별하나	-10.6096
▁없는게	-10.6101
터짐	-10.6103
보신분들	-10.6104
효과	-10.6106
▁추천하고	-10.6107
▁만났	-10.6108
▁뗄	-10.6108
▁쿨	-10.6108
해져	-10.6114
▁널	-10.6121
주고싶	-10.6121
▁않은데	-10.6141
▁잘만들었다	-10.6144
▁땀	-10.6144
▁배경으로	-10.6144
▁남성	-10.6148
~~~~~	-10.6148
뉴	-10.6155
90	-10.6158
▁미국의	-10.6159
▁벗어	-10.6159
~~~~~~	-10.6159
▁띄	-10.6162
▁진한	-10.6162
▁장면들이	-10.6165
▁시간에	-10.6171
살인	-10.6175
짱짱	-10.6185
칙	-10.6188
뱀	-10.6188
켓	-10.6189
윌	-10.6189
▁놀랐다	-10.6189
쉐	-10.6189
킴	-10.6189
▁빨갱이	-10.6189
▁엑소	-10.6189
▁러브라인	-10.6189
▁쓸쓸	-10.619
▁흥미로웠	-10.619
▁짜릿	-10.6191
▁있기	-10.6195
▁향수	-10.6195
▁그림체	-10.6195
▁재미있었습니다	-10.62
▁던져	-10.62
▁소름돋	-10.6202
ᄃᄃᄃ	-10.6202
아아아	-10.6202
▁드림	-10.6204
줄알	-10.6205
▁대표	-10.6206
▁아만다	-10.6207
없구	-10.6208
▁암울	-10.6209
ra	-10.621
▁가족의	-10.621
▁놀란	-10.6212
▁모르지만	-10.6212
▁재미있었음	-10.6213
▁넘어가	-10.6213
▁있었으면	-10.6215
▁미안하다	-10.6215
보임	-10.6216
복수	-10.6217
▁거지같은	-10.6217
▁액션을	-10.622
소재와	-10.6223
▁의도가	-10.6224
▁감독과	-10.6225
▁나을듯	-10.6227
▁웃었	-10.6232
겠어	-10.6232
지루하고	-10.6232
▁되는데	-10.6242
당시엔	-10.6243
▁말투	-10.6249
▁그렇지만	-10.625
▁ᄡ	-10.6252
▁심한	-10.6253
▁내리	-10.6256
▁기대이하	-10.626
▁빠져서	-10.626
다큐	-10.6261
▁단편	-10.6263
▁것에	-10.6267
▁베이	-10.6271
▁괜찮게	-10.6272
▁액	-10.6276
->	-10.628
▁보고나니	-10.6283
장님	-10.6283
▁편안	-10.6284
▁그리워	-10.6289
▁것만	-10.6294
싫다	-10.6295
▁뭐라고	-10.6297
가며	-10.6299
▁인류	-10.6301
▁요즘은	-10.6306
??????	-10.6306
회가	-10.6309
▁여신	-10.6313
se	-10.6314
▁파리	-10.6323
좋네요	-10.6325
▁내용에	-10.6334
갠	-10.635
▁연기하는	-10.6352
▁깊게	-10.6353
뤄	-10.6353
▁박중훈	-10.6353
▁브루스	-10.6353
▁이병헌	-10.6353
▁괜찮고	-10.6354
▁비행기	-10.6355
▁낭만	-10.6355
▁도둑	-10.6355
▁배꼽	-10.6356
▁잃은	-10.6356
▁고딩	-10.6359
역할	-10.6361
▁만들었을까	-10.6363
▁안본다	-10.6367
▁대사들	-10.6367
물론	-10.6373
▁진지하게	-10.6374
▁말하려는	-10.6376
▁귀여워요	-10.6382
▁재밌었던	-10.6385
▁잃었	-10.6387
▁보았던	-10.6387
▁연출력이	-10.6389
▁군인	-10.6389
▁깔끔한	-10.6395
▁한다는	-10.6398
맘에	-10.6399
애들은	-10.6401
하하	-10.6402
▁인디	-10.6403
▁인상적인	-10.6404
▁빠지는	-10.6416
누구	-10.6421
▁작가의	-10.6422
▁챙겨	-10.6429
▁인생은	-10.6435
놈들은	-10.6443
편까지	-10.6443
것같네요	-10.6445
곳이	-10.6449
▁선사	-10.645
▁웃는	-10.645
▁찍는	-10.6451
▁들어간	-10.6465
뭐지	-10.6468
볼수	-10.6468
▁끝나서	-10.6469
줘야지	-10.6471
▁나와야	-10.6475
▁줘야	-10.6476
▁공감도	-10.6482
외엔	-10.6495
삐	-10.6497
쟁	-10.6502
▁당연	-10.6502
▁미스	-10.6505
훌륭	-10.6508
▁도시	-10.6516
▁캐릭	-10.6518
뽀	-10.6519
졋	-10.6519
템	-10.6519
▁EBS	-10.6519
▁어설프다	-10.6519
곽	-10.6519
▁언젠가	-10.6519
쯧쯧	-10.6519
▁베드신	-10.6519
▁하이틴	-10.6519
▁무거운	-10.6519
▁박보영	-10.6519
차승원	-10.6519
▁오글오글	-10.652
▁극혐	-10.6521
결국	-10.6522
해줘서	-10.6522
▁생각해보게	-10.6523
▁분량	-10.6525
▁직업	-10.6525
▁깎	-10.6525
▁동영상	-10.6526
▁ᄒᄃᄃ	-10.6528
재미있다	-10.6529
스코	-10.6533
립니다	-10.6534
맞은	-10.6536
▁개콘	-10.6537
▁가족애	-10.6544
▁하자	-10.6549
거라고	-10.655
▁소통	-10.655
돈주고	-10.655
것인가	-10.6551
당신	-10.6555
▁조금은	-10.6556
생각을	-10.6558
▁극중	-10.656
▁요소가	-10.6562
▁언제까지	-10.6565
▁앞서	-10.6566
▁신선함	-10.6568
▁첨이다	-10.6569
▁내돈	-10.6575
▁사랑스럽다	-10.6578
▁감동적이네요	-10.6581
▁사랑하고	-10.6582
▁원하는	-10.6583
▁어이없다	-10.6588
였다면	-10.6596
▁지났	-10.66
▁분장	-10.6601
ie	-10.6602
시킬	-10.6603
▁뜬금없이	-10.6607
▁있긴	-10.6608
▁한시간	-10.6611
▁망할	-10.6613
▁정도가	-10.6615
스릴	-10.6619
▁보라고	-10.662
▁화끈	-10.6625
더군	-10.6626
후반	-10.6627
년대에	-10.6629
▁것들이	-10.663
▁새벽	-10.663
▁지키	-10.6632
▁짜증나게	-10.6632
▁뭐임	-10.6633
▁않았던	-10.6645
거같아	-10.6647
▁및	-10.6648
▁캐릭터들이	-10.6649
▁저거	-10.6651
ed	-10.6653
14	-10.6654
▁만들려	-10.6659
▁살다	-10.6664
▁드라마입니다	-10.6665
하나하나가	-10.6672
땡	-10.6672
▁이상하다	-10.6673
잊	-10.6673
▁전문	-10.6675
▁뭐하는	-10.6678
▁실망스럽	-10.6679
줄알았다	-10.6679
▁살았	-10.6686
。	-10.6689
셜	-10.6689
▁흡입력	-10.6689
덮	-10.6689
됫	-10.6689
듦	-10.6689
렐	-10.6689
맴	-10.6689
퉤	-10.6689
▁신하균	-10.6689
겻	-10.6689
캡	-10.6689
▁라이언	-10.6689
▁거부감	-10.6689
▁무간도	-10.6689
▁둘째치고	-10.6689
▁빼곤	-10.669
▁더러워	-10.6691
▁예측	-10.6691
광구	-10.6691
었구나	-10.6692
▁2012	-10.6693
▁부활	-10.6696
▁말그대로	-10.6696
▁탄탄	-10.6697
▁에효	-10.6698
▁마시길	-10.6701
▁이거보다	-10.6702
▁맞나	-10.6702
▁흘러가는	-10.6704
▁숨은	-10.6712
보고나서	-10.6713
▁하나님	-10.6715
지루해	-10.6715
▁대학	-10.6718
▁러브	-10.6722
주제	-10.6727
▁영원	-10.6728
▁답답하다	-10.6729
점만점에	-10.673
유발	-10.6735
▁역겹다	-10.6737
▁살아야	-10.6737
▁순수하고	-10.6737
▁버리고	-10.6739
쓴다	-10.6746
최고다	-10.675
▁나올때	-10.6754
▁만드네	-10.6757
▁한번더	-10.6761
▁가히	-10.6765
실력	-10.6771
▁시작해서	-10.6773
▁뛰어넘는	-10.6778
중국	-10.6781
▁소장하고	-10.6785
여배우	-10.6789
장난치	-10.6789
▁미국식	-10.6792
▁여인	-10.6796
▁무대	-10.6802
▁절로	-10.6804
▁발음	-10.6807
하러	-10.681
▁씁쓸하	-10.6811
도좋고	-10.6814
하겠습니다	-10.682
▁몰아	-10.6821
극히	-10.6821
▁아까	-10.6825
▁조연들	-10.6826
▁활	-10.683
못함	-10.6846
있네요	-10.6847
떼	-10.6851
옷	-10.6852
핵	-10.6852
궁금	-10.6856
경찰	-10.6857
ᅩ	-10.686
풋	-10.6861
쌓	-10.6861
팩	-10.6861
혔	-10.6861
▁아름다워	-10.6861
▁임창정	-10.6861
▁칭찬	-10.6861
▁비호감	-10.6861
▁워낙	-10.6861
▁부자연	-10.6861
▁아쉬울	-10.6861
잊지못할	-10.6862
▁감명깊게	-10.6862
▁향연	-10.6862
▁재미없었	-10.6863
바로	-10.6867
▁엄청나게	-10.6868
▁보겠다	-10.6868
▁낫겠다	-10.6868
▁같았다	-10.6868
▁개그맨	-10.6868
▁따름	-10.6869
▁좋겠습니다	-10.6872
▁중학생	-10.6873
▁혼란	-10.6874
▁꼭보세요	-10.6879
▁재미있었는데	-10.6891
였구나	-10.6892
▁졸았	-10.6899
장에서	-10.6901
▁기대하지	-10.6905
▁부산	-10.6905
▁멋지게	-10.6907
는것을	-10.6912
았으면	-10.6916
인걸	-10.6917
어야지	-10.6919
▁캐릭터를	-10.6921
지않는다	-10.6921
나보네	-10.6926
뻔했다	-10.6927
▁우선	-10.6927
▁극장에	-10.6934
▁H	-10.6943
▁맡은	-10.6944
본적	-10.6951
하고싶다	-10.6952
▁했더니	-10.6954
▁연상	-10.6966
▁코믹영화	-10.697
▁천사	-10.6986
▁역사에	-10.6991
까봐	-10.6992
▁충분한	-10.6995
이어서	-10.6996
▁아니잖아	-10.6996
▁새끼	-10.6998
닼ᄏᄏᄏ	-10.6999
▁볼것	-10.7
안하고	-10.7002
▁말고는	-10.7002
▁여배우들	-10.701
▁쩌는	-10.701
▁의문이	-10.7012
▁연기력에	-10.7014
▁어디로	-10.7015
▁최악의영화	-10.7016
▁못했	-10.7023
▁눈치	-10.7024
▁가능성	-10.7029
둑	-10.7034
프로그램	-10.7034
버렸네	-10.7036
▁디카프리오	-10.7037
▁비쥬얼	-10.7037
▁소름끼치는	-10.7037
▁스타워즈	-10.7037
렛	-10.7037
▁왕조현	-10.7037
밧	-10.7037
솜	-10.7037
얄	-10.7037
왈	-10.7037
▁도데체	-10.7037
맺	-10.7037
▁일주일	-10.7037
▁킬러	-10.7037
▁스타뎀	-10.7037
▁나타나	-10.7039
▁시도는	-10.704
▁격투	-10.704
▁그려낸	-10.704
▁묘한	-10.7041
▁최고네요	-10.7042
예술	-10.7043
▁로빈	-10.7044
▁으악	-10.7044
▁철저	-10.7046
ne	-10.7048
▁말씀	-10.7048
▁에라이	-10.7049
▁사람들을	-10.7049
▁불쌍하	-10.7051
▁재밌게봤어요	-10.7053
▁입장	-10.7055
▁최후	-10.706
▁그들이	-10.7061
▁힘들어	-10.7063
▁J	-10.7067
싶은데	-10.7067
선정	-10.7068
▁다운받아서	-10.7069
▁영화인줄	-10.7073
▁케미	-10.7076
▁독특하고	-10.7078
▁정도는	-10.7078
▁어이없음	-10.7079
▁당신이	-10.7082
▁안나온다	-10.7082
▁공유	-10.7084
▁있으나	-10.7087
굿굿	-10.7088
▁우린	-10.7094
▁하드	-10.7095
으셨	-10.7102
▁넘넘	-10.7105
ce	-10.7105
▁형편없는	-10.7108
▁이딴영화	-10.7111
▁영상도	-10.7111
▁볼만했	-10.7118
▁아이유	-10.712
▁준비	-10.7121
un	-10.7127
▁슬픈영화	-10.713
▁끝도	-10.713
셨으면	-10.7133
▁잘생겼	-10.7137
▁방해	-10.7137
이랄까	-10.7138
▁이야	-10.7143
▁그런거	-10.7146
▁빈약	-10.7156
▁별로였다	-10.7157
실화	-10.7168
외에는	-10.7174
▁막판	-10.718
비추	-10.7182
▁싶어서	-10.7183
▁읽는	-10.7183
▁두시간	-10.7187
▁정체	-10.7188
▁구분	-10.7191
▁있었고	-10.7191
주기도	-10.72
겼다	-10.7209
읍	-10.7213
▁힘을	-10.7215
뜸	-10.7215
쭈	-10.7215
▁시종일관	-10.7215
▁알파치노	-10.7215
츄	-10.7215
팽	-10.7215
▁뒤죽박죽	-10.7215
▁아기자기	-10.7215
☆	-10.7215
▁여러모로	-10.7215
▁가운데	-10.7215
▁한효주	-10.7215
▁미스캐스팅	-10.7215
▁총체적	-10.7216
▁스파이	-10.7217
com	-10.7217
탓	-10.7218
▁케빈	-10.7218
빼곤	-10.7218
샘	-10.7218
시청률	-10.7219
▁돈아까워	-10.722
판타지	-10.722
그나마	-10.722
▁잠을	-10.7221
CG	-10.7221
▁감동적이에요	-10.7222
우리나라	-10.7223
▁살렸다	-10.7224
sh	-10.7226
시켰	-10.7226
▁짤	-10.7226
나왔으면	-10.7227
어떤	-10.7227
▁시골	-10.7228
싶네요	-10.7229
▁승부	-10.723
되냐	-10.7231
▁속았다	-10.7232
▁모욕	-10.7233
▁웃기는	-10.7234
▁마리	-10.7234
▁가짜	-10.7234
하트	-10.7236
▁장난하나	-10.7239
▁미스터리	-10.7245
허무	-10.7247
▁글을	-10.7248
▁작화	-10.7248
▁감명	-10.7249
▁입장에서	-10.725
▁조금만	-10.7258
여주인공	-10.7263
▁멋져	-10.7267
▁당장	-10.7268
▁최고라고	-10.7271
▁만들다	-10.7273
겨울	-10.7276
▁말인가	-10.7277
▁아이들에게	-10.7277
지루하다	-10.7278
이후로	-10.7279
▁타란티노	-10.7286
느냐	-10.7286
▁완벽하다	-10.7289
미화	-10.7291
버스	-10.7292
▁받았다	-10.7295
▁말밖에	-10.7296
해줘	-10.7297
▁다시금	-10.7299
▁잼있네요	-10.7302
▁개봉당시	-10.7303
▁삶과	-10.7304
▁건질	-10.7307
점주기도	-10.7313
▁전편보다	-10.7314
~~~~~~~~	-10.732
▁만화영화	-10.7323
▁않으	-10.7325
29	-10.733
스턴	-10.7333
▁싫어하는	-10.7333
▁보아도	-10.7341
▁R	-10.7348
▁불과	-10.7348
▁소름돋는	-10.735
▁알게되	-10.735
▁프랑스영화	-10.735
▁심하다	-10.7355
▁범죄자	-10.7357
▁재미없네요	-10.7357
▁보는것	-10.736
▁흉내	-10.7361
▁똑같이	-10.7365
성우	-10.7367
기술	-10.7369
▁것인가	-10.7371
▁바닥	-10.7372
▁단점	-10.7373
싹	-10.739
▁노인	-10.7392
돌려	-10.7395
혐	-10.7395
▁운동	-10.7396
ᄊ	-10.7397
깁	-10.7397
펜	-10.7397
▁movie	-10.7397
띠	-10.7397
쏴	-10.7397
핫	-10.7397
▁아마추어	-10.7397
▁김수현	-10.7397
▁펼쳐	-10.7397
▁닥치고	-10.7397
▁바탕으로	-10.7398
드려요	-10.7398
있었는데	-10.7398
▁다른영화	-10.7398
▁혁명	-10.7398
▁보지마셈	-10.7398
▁엽기	-10.7398
엉엉	-10.7399
▁질질끌	-10.7399
▁미쳐	-10.74
▁섬세하	-10.74
▁픽사	-10.7401
am	-10.7401
▁난해한	-10.7402
▁오래전에	-10.7402
멀	-10.7408
줍니다	-10.7408
▁어쩌다	-10.7409
구려	-10.741
보러	-10.7411
▁보여줄	-10.7415
▁옛날영화	-10.7416
▁개꿀잼	-10.7418
▁늙어	-10.7418
▁못하겠다	-10.742
▁지옥	-10.7422
▁됐다	-10.7423
▁충분하다	-10.7423
좋아하	-10.7427
▁흥분	-10.7428
▁되야	-10.7431
▁충격적인	-10.7432
▁역사상	-10.7432
▁믿음	-10.7436
닼	-10.7436
각본	-10.7439
▁산만하고	-10.7442
▁사랑스럽고	-10.7444
▁사회적	-10.7446
큼	-10.745
▁미녀	-10.745
크리	-10.7457
하길래	-10.7471
스틴	-10.7475
▁철학적	-10.7476
▁억지스럽고	-10.7477
▁모르겠네	-10.7481
방에서	-10.7483
tv	-10.7488
▁신고	-10.7493
▁당황	-10.7493
▁만들어라	-10.7495
▁위트	-10.7497
▁올라가	-10.75
▁왔습니다	-10.7502
버린다	-10.7505
▁듣기	-10.7508
!!!!!!!!	-10.7511
판에	-10.7516
▁오글거리는	-10.7517
▁비교해	-10.7517
▁남아있	-10.752
▁스릴러물	-10.7527
▁끝을	-10.753
되길	-10.753
▁가야	-10.7532
하더니	-10.7539
▁대부	-10.7539
수밖에	-10.7544
▁세상에서	-10.7545
▁또보고	-10.7554
속으로	-10.7555
오른	-10.7558
▁살아있는	-10.756
▁긴장감을	-10.7565
해야하나	-10.7566
▁선동	-10.7571
▁들게	-10.7573
륜	-10.7577
랍	-10.7579
▁아무튼	-10.7579
행위	-10.7579
껐	-10.7579
냄	-10.758
옵	-10.7582
덧	-10.7582
뜯	-10.7582
뼈	-10.7582
▁섬세한	-10.7582
▁강동원	-10.7582
▁섬뜩	-10.7582
생겨서	-10.7583
▁미소가	-10.7584
▁그럴싸	-10.7584
▁풀어낸	-10.7586
ᄂᄂ	-10.7587
▁프레	-10.7588
본거	-10.7592
판을	-10.7595
▁세계관	-10.7596
▁로망	-10.7598
▁모자라	-10.7598
폴	-10.76
얼마나	-10.7601
댓글	-10.7602
졌음	-10.7602
뒤에	-10.7606
▁고문	-10.7608
▁뻔한스토리	-10.7608
▁울었어요	-10.7609
병맛	-10.761
▁에어	-10.761
줘요	-10.7613
▁조낸	-10.7613
▁팬들	-10.7617
▁좋으나	-10.7617
▁보고있는데	-10.762
▁학생들	-10.7623
▁사람에게	-10.7623
잼씀	-10.763
살때	-10.7635
▁나열	-10.7643
▁아까워서	-10.7643
▁느껴지지	-10.7646
he	-10.7657
▁욕먹	-10.7666
긴했지만	-10.7667
달라고	-10.7668
자꾸	-10.7669
영활	-10.7669
▁행복하게	-10.767
어리	-10.7671
▁좋아하지만	-10.7672
말이필요없	-10.7677
형사	-10.768
▁한가지	-10.7683
투성이	-10.7686
▁낮은지	-10.7686
할려고	-10.769
▁무서움	-10.7691
아까운영화	-10.7693
믿고	-10.7695
거든	-10.7697
▁뻥	-10.7698
▁짱구	-10.7698
^^;	-10.7699
▁연기잘하	-10.7699
그저	-10.7708
▁살리지	-10.7712
▁완성	-10.7713
ost	-10.7717
▁나머지는	-10.7722
▁맞다	-10.7724
현실적	-10.7737
ᄃᄃᄃᄃ	-10.7746
재밋다	-10.7746
그대로	-10.7748
▁이것보다	-10.775
야말로	-10.7755
ha	-10.7755
ic	-10.7755
▁후하게	-10.7757
la	-10.7761
▁허허	-10.7765
▁두명	-10.7766
윽	-10.7771
멈	-10.7771
▁엔딩크레딧	-10.7771
▁유치찬란	-10.7771
랏	-10.7771
오랫동안	-10.7771
퀸	-10.7771
▁마찬가지	-10.7771
▁클래식	-10.7771
▁납득	-10.7771
▁평점조절	-10.7771
▁원숭이	-10.7771
▁떡밥	-10.7771
▁두고두고	-10.7772
▁레옹	-10.7773
▁민족	-10.7774
즐겁	-10.7777
셨어요	-10.7777
▁쉬운	-10.7778
▁방향	-10.7779
치면	-10.7781
하나요	-10.7782
▁중년	-10.7782
▁시험	-10.7783
▁알리	-10.7791
낭비	-10.7792
▁뻔하다	-10.7792
▁한심하다	-10.7793
▁실사	-10.7794
덕분에	-10.7796
▁자랑	-10.7797
로맨스	-10.78
▁당신의	-10.7802
▁매번	-10.7804
▁비록	-10.7804
시죠	-10.7806
▁봐주	-10.7808
mo	-10.781
재밌고	-10.7815
▁시체	-10.7815
저런	-10.7816
▁망쳐놓	-10.7817
제일	-10.7821
▁보게되는	-10.7823
▁언어	-10.7827
▁채워	-10.7828
▁화질	-10.7836
▁우유	-10.7837
것인지	-10.7838
▁16	-10.7839
▁무기	-10.7845
▁무섭게	-10.7847
▁필요한가	-10.7847
▁소유	-10.7851
▁웃겼다	-10.7852
▁커서	-10.7854
그런데	-10.7856
점이나	-10.7859
▁물어	-10.786
▁일반인	-10.7863
▁관심이	-10.7863
진행	-10.7867
될까	-10.7869
▁많네	-10.7879
▁티비로	-10.788
▁현실은	-10.788
▁나음	-10.7883
▁세월이	-10.7885
▁잔인함	-10.7886
빠짐	-10.7898
지마세요	-10.7904
▁넘어서	-10.7906
▁V	-10.7907
▁헉	-10.791
▁안나오는	-10.7912
▁가르	-10.7913
하는듯	-10.7914
나올때	-10.7916
났음	-10.7928
소년	-10.7928
좋은데	-10.7931
▁웃었다	-10.7942
▁잼없다	-10.7946
내려	-10.7957
▁남는게	-10.7957
▁인생영화	-10.7959
▁장진	-10.7959
봣어요	-10.796
us	-10.7961
콤	-10.7961
뎀	-10.7962
렴	-10.7963
숀	-10.7963
▁고등학생	-10.7963
▁스파이더맨	-10.7963
▁즐거움	-10.7963
믄	-10.7963
▁감성팔이	-10.7963
▁애초에	-10.7963
very	-10.7964
▁온갖	-10.7964
▁자연스럽게	-10.7965
▁찾기	-10.7967
▁4.44	-10.7967
▁잔잔함	-10.7968
▁돌아보게	-10.7968
▁닮았	-10.7969
페이스	-10.797
vs	-10.797
주시	-10.7973
▁재앙	-10.7973
▁아쉬워요	-10.7975
리스트	-10.7976
간만에	-10.7977
명성에	-10.7977
▁의도는	-10.7979
▁권력	-10.7979
▁괜찮았던	-10.7983
분짜리	-10.7984
만족	-10.799
▁될수	-10.799
더라고요	-10.7992
▁영화라지만	-10.7993
왠	-10.7996
▁시기	-10.7996
▁싶습니다	-10.7997
▁예수	-10.7997
▁이만한	-10.7997
▁마시	-10.8002
좀비	-10.8002
결혼	-10.8002
▁한동안	-10.8003
▁재방	-10.8003
학년때	-10.8004
죽이고	-10.8006
▁괜찮네요	-10.801
내리	-10.8014
▁쓰러	-10.8018
▁않습니다	-10.8019
▁도와	-10.8022
▁조잡한	-10.8023
▁훌륭하	-10.8025
il	-10.8033
▁마냥	-10.8037
▁회사	-10.804
구역	-10.804
▁눈으로	-10.8043
충격	-10.8045
▁이거보단	-10.8048
▁엘리	-10.8049
▁있었음	-10.8051
▁믿어	-10.8053
▁살아남	-10.8057
로서는	-10.806
▁섹	-10.8061
국민	-10.8074
떨어지	-10.8081
▁본격	-10.8087
▁오해	-10.8088
▁원작과	-10.8089
▁끝날	-10.8089
구먼	-10.809
깐	-10.809
▁추가	-10.8093
▁17	-10.8099
▁캐리	-10.8111
▁전기	-10.8118
결말이	-10.812
겟네	-10.8129
▁챙겨보	-10.813
좋겠	-10.813
▁실망이다	-10.8131
삼류	-10.8133
▁배우분들	-10.8134
▁만세	-10.8137
질질	-10.814
▁열라	-10.8146
▁후반부에	-10.8148
ma	-10.8152
▁남기는	-10.8155
▁진부하	-10.8155
감명깊	-10.8158
▁별거	-10.8159
쇠	-10.8159
턱	-10.8159
▁안타까움	-10.8159
▁점수준것들	-10.8159
꽁	-10.8159
짙	-10.8159
잣	-10.8159
▁김혜수	-10.8159
▁피아노	-10.8159
▁니콜라스	-10.8161
▁귀찮	-10.8161
▁치밀하	-10.8161
하더라도	-10.8161
▁상큼	-10.8161
▁로맨틱코미디	-10.8162
▁껐다	-10.8162
▁파격적	-10.8163
▁자연스러운	-10.8164
▁방황	-10.8164
흑흑	-10.8165
▁못봐주겠	-10.8166
▁아니라면	-10.8168
▁감동적입니다	-10.8172
▁태국	-10.8174
▁멋져요	-10.8177
▁짱이다	-10.818
▁느껴질	-10.8181
▁두개	-10.8185
답다	-10.8186
▁제작비가	-10.8187
거보고	-10.8191
▁영화보다가	-10.8195
놈은	-10.8198
어른	-10.8199
쩝	-10.82
애니메이션	-10.8201
예쁘	-10.8201
ᄉᄇ	-10.8203
▁또라이	-10.821
▁느껴졌다	-10.821
▁기발한	-10.8211
할수없는	-10.8212
▁오그라들	-10.8212
바닥	-10.8215
▁않아요	-10.8217
올려	-10.8222
▁성인이	-10.8224
▁편하게	-10.8237
같은데	-10.8237
▁재밋엇	-10.8238
마저도	-10.8239
▁화끈한	-10.8239
▁외국인	-10.8241
▁정리	-10.8241
▁만들어졌	-10.8247
▁느끼고	-10.8247
▁나왔던	-10.8252
수작	-10.8253
▁뛰어넘	-10.826
귀여웠	-10.8261
▁해준다	-10.8267
▁짜증났	-10.8277
▁잠들	-10.8288
▁없던	-10.8288
팬이	-10.8291
졸업	-10.8297
피디	-10.8312
▁알려주는	-10.8313
것들이	-10.8317
호러	-10.8322
같애	-10.8323
▁재밋는	-10.8325
▁낚인	-10.8328
ter	-10.8329
끝나고	-10.8339
지않게	-10.8342
분정도	-10.8345
제국	-10.8347
▁나오기	-10.8351
랍니다	-10.8358
▁킬링	-10.8359
깡	-10.8359
밍	-10.8359
팝	-10.8359
▁뒤늦게	-10.8359
▁어정쩡	-10.8359
▁포켓몬	-10.8359
뻑	-10.8359
쩍	-10.8359
뚫	-10.8359
아카데미	-10.8359
띵	-10.8359
▁오그라드는	-10.836
▁바란다	-10.836
▁수면제	-10.836
▁전성기	-10.8362
▁멋짐	-10.8363
▁알아야	-10.8367
▁따규	-10.8367
▁미치겠	-10.8368
▁별로네요	-10.8369
▁반응	-10.8371
▁환장	-10.8375
▁고증	-10.8378
▁처음본다	-10.8381
▁재밌었습니다	-10.8384
▁무엇이	-10.8389
▁일찍	-10.839
▁채우	-10.8393
▁의미있는	-10.8395
두번	-10.8397
동화	-10.8398
▁안감	-10.8399
▁보고싶은데	-10.8402
el	-10.8404
탐	-10.8407
▁당연한	-10.8407
주었다	-10.841
▁안나옴	-10.8416
학원	-10.8419
폭력	-10.8422
id	-10.8423
▁모든것이	-10.8426
▁받아야	-10.8427
▁웃겨서	-10.843
▁다가오	-10.8433
눈물이	-10.8434
▁밋밋한	-10.8445
▁담고	-10.8446
▁역작	-10.8447
▁막상	-10.8452
▁불쌍해	-10.8453
▁빠져들게	-10.8455
보려고	-10.8456
▁답답해	-10.8458
재밋음	-10.8459
▁니네	-10.846
프라	-10.8465
릴때	-10.8471
▁부족하고	-10.8475
▁커버	-10.8477
▁부인	-10.8478
ch	-10.849
▁머야	-10.849
▁뺏	-10.8492
▁무협영화	-10.8508
했어도	-10.8512
올린	-10.852
▁때리	-10.8524
▁전율	-10.8526
▁저러	-10.8532
▁글고	-10.8533
▁브레	-10.8543
안되고	-10.8543
룬	-10.8544
▁얻어	-10.8547
▁니들이	-10.8549
▁독립	-10.8551
▁대박이다	-10.8551
봇	-10.8562
▁bad	-10.8563
▁런닝타임	-10.8563
▁크레딧	-10.8563
넓	-10.8563
좆	-10.8563
▁세련된	-10.8563
▁엄정화	-10.8563
▁짬뽕	-10.8563
▁한석규	-10.8563
▁어차피	-10.8563
▁스페인	-10.8563
▁완젼	-10.8564
▁안되네	-10.8565
▁늙은	-10.8566
▁아무나	-10.8566
▁흘렸	-10.8568
▁찬양	-10.8569
▁억지스런	-10.857
▁사이코	-10.8574
▁먹칠	-10.8575
▁진행되는	-10.8583
하였다	-10.8584
▁복선	-10.8586
▁되었습니다	-10.859
▁좋더라	-10.8591
▁가족과	-10.8593
▁빠질	-10.8594
것같음	-10.8594
▁있겠지만	-10.8595
하든	-10.8601
▁봐줄만	-10.8601
▁느낀다	-10.8608
▁멋있고	-10.8608
때문이	-10.8609
▁한사람	-10.8609
▁마블	-10.8612
▁최고에요	-10.8615
▁주온	-10.8617
▁모방	-10.8619
첫	-10.8622
갑자기	-10.8622
옛날	-10.8622
촬영	-10.8622
▁인연	-10.8626
초딩	-10.863
▁얘기를	-10.8631
▁표정이	-10.8632
철학	-10.8632
실패	-10.8635
▁제대로된	-10.8636
▁포함	-10.8638
부리	-10.8646
▁못만들	-10.8649
남주	-10.865
에휴	-10.8652
▁정체성	-10.8652
졌어요	-10.8653
▁낮네요	-10.8655
▁의해	-10.8658
아닌데	-10.8665
졌으면	-10.8668
▁진부하다	-10.8673
아직	-10.8673
▁현실적이고	-10.8675
▁크다	-10.8681
▁안보면	-10.8684
▁감독에게	-10.8687
▁해외	-10.869
▁본능	-10.8691
▁무식	-10.8692
▁상업영화	-10.8695
▁걸리	-10.8697
▁꿈과	-10.87
▁과정이	-10.8705
됬는데	-10.8706
보던	-10.8706
할정도로	-10.8709
▁그이상	-10.8725
▁남아있는	-10.8728
▁나오네요	-10.8731
▁안가는	-10.8735
작가님	-10.8741
바른	-10.8753
▁역사적	-10.8762
괜	-10.8764
하기에는	-10.8769
▁일깨워	-10.877
하려면	-10.877
▁뱀파	-10.8771
뚜	-10.8772
썰	-10.8772
****	-10.8772
Y	-10.8772
▁도라에몽	-10.8772
▁애니매이션	-10.8772
▁호불호가	-10.8772
꽉	-10.8772
삘	-10.8772
즉	-10.8772
캠	-10.8772
▁그냥저냥	-10.8772
쇄	-10.8772
▁설경구	-10.8772
▁팝콘	-10.8772
▁나루토	-10.8772
▁어딘가	-10.8772
▁원피스	-10.8772
▁드니로	-10.8772
▁후속편	-10.8772
▁보낸다	-10.8772
▁말이필요없다	-10.8774
어지럽	-10.8774
▁가슴아프	-10.8775
▁호흡	-10.8775
▁새삼	-10.8778
▁생존	-10.878
차원	-10.8781
▁간직	-10.8785
ri	-10.8787
▁아까웠	-10.8788
▁초반엔	-10.8789
▁개인적인	-10.8789
▁피곤	-10.879
낫다	-10.879
▁심각하게	-10.8793
▁게스트	-10.8795
▁제작자	-10.8799
▁거짓	-10.8799
▁감정선	-10.8804
▁심장이	-10.8806
▁성형	-10.881
▁극본	-10.8811
▁이런식으로	-10.8813
엇음	-10.8813
▁멜로영화	-10.8819
▁미학	-10.8821
됬다	-10.8821
▁기대된다	-10.8822
꿀	-10.8832
높아	-10.8835
회부터	-10.8835
▁피식	-10.8836
암튼	-10.8842
▁갖게	-10.8844
▁좋으	-10.885
▁싶음	-10.8851
▁점에서	-10.8855
▁재수없	-10.8855
▁기대했던	-10.886
▁상처를	-10.8862
▁내취향	-10.8864
▁이어지는	-10.8868
▁만들었으면	-10.8873
▁일본에서	-10.8874
▁머냐	-10.8879
해가는	-10.8879
끝내	-10.8881
▁시청자들	-10.8881
▁높지	-10.8886
▁첨으로	-10.8894
남긴다	-10.8898
되네	-10.8899
▁흔하	-10.8908
▁취향이	-10.8911
볼때	-10.8914
▁바라는	-10.8914
으세요	-10.8919
있었던	-10.8923
보길	-10.8926
▁굿굿굿	-10.8928
잇엇	-10.8932
입장	-10.8939
말도안되	-10.8944
하지않고	-10.8948
점주고	-10.895
70	-10.8952
▁정부	-10.8952
잘못	-10.8962
▁즐겨	-10.8969
▁않으면	-10.8979
댓	-10.8983
▁러닝타임이	-10.8983
떳	-10.8984
끓	-10.8984
릅	-10.8984
▁박찬욱	-10.8984
▁에드워드	-10.8984
▁영웅본색	-10.8984
▁테이큰	-10.8984
숲	-10.8984
▁2.22	-10.8984
▁아이언맨	-10.8984
넷	-10.8984
▁김희선	-10.8984
▁정주행	-10.8984
▁멘탈	-10.8984
▁흥미롭게	-10.8985
▁가까이	-10.8985
▁거기서	-10.8986
▁슈퍼맨	-10.8989
▁이하도	-10.899
▁공룡	-10.899
할게요	-10.8993
▁빨간	-10.8996
▁긴장감과	-10.8998
▁경악	-10.8999
▁반갑	-10.8999
▁히어로물	-10.9006
▁동화같은	-10.9006
▁소품	-10.9006
▁감동적이었다	-10.9008
▁우승	-10.9009
▁회상	-10.9014
▁액션물	-10.9015
▁건강	-10.9018
레기	-10.9021
▁강추합니다	-10.9022
▁봐야한다	-10.9023
▁흉내내	-10.9027
들끼리	-10.9029
드리고	-10.9031
▁만들었냐	-10.9033
▁어린아이	-10.9033
▁귀여워서	-10.9035
있다면	-10.9037
뭔지	-10.9038
한국영화	-10.9038
▁공연	-10.904
▁전율이	-10.9041
▁말았다	-10.9041
▁여유	-10.9043
앞에	-10.9045
▁몰입하게	-10.9047
▁대역	-10.9049
▁편인데	-10.9051
▁있어보이	-10.9056
▁만들어야	-10.9056
▁광기	-10.9057
▁우리에게	-10.906
무서운	-10.9061
오랜만에	-10.9062
마무리	-10.9063
그녀	-10.9063
분들께	-10.9064
▁허구	-10.9069
▁걸작이다	-10.9071
스러웠다	-10.9072
주고싶은	-10.9077
▁최고최고	-10.9079
▁알려주	-10.9082
전체	-10.9085
신화	-10.9085
▁안봐서	-10.9086
:)	-10.9088
▁연주	-10.9089
▁자세	-10.9096
▁웃기기	-10.9096
감상	-10.9101
!!!!!!!	-10.9107
▁다시봤는데	-10.911
공부	-10.912
겠고	-10.913
▁검색해	-10.913
▁다름	-10.9133
▁믿는	-10.914
▁나한테	-10.9142
▁못했던	-10.9154
웃긴	-10.9156
듣고	-10.9164
그림	-10.9166
습니까	-10.9166
였네	-10.9167
순수	-10.9169
nt	-10.9173
▁적절	-10.9173
▁이딴게	-10.9174
▁망쳐	-10.9176
▁싶다면	-10.9179
▁오랜	-10.9184
보기엔	-10.9194
앵	-10.92
▁송승헌	-10.9202
꾹	-10.9202
▁군더더기	-10.9202
▁어설프게	-10.9202
늬	-10.9202
룸	-10.9202
줫	-10.9202
▁권상우	-10.9202
▁손예진	-10.9202
▁나머진	-10.9202
▁아바타	-10.9202
▁오페라	-10.9202
▁외로움	-10.9202
▁흠잡을	-10.9202
▁왕가위	-10.9202
점준것중	-10.9202
▁심리묘사	-10.9202
▁엠마	-10.9203
▁강아지	-10.9203
▁안좋아	-10.9204
▁색채	-10.9205
땜시	-10.9206
▁택시	-10.9206
▁낮추	-10.9208
▁웃으며	-10.9209
▁재탕	-10.9211
▁치료	-10.9212
보여서	-10.9214
▁반감	-10.9219
고싶었	-10.9222
▁아깝습니다	-10.9222
▁본방	-10.9222
▁꺼져	-10.9224
▁기억난다	-10.9226
▁웃다가	-10.9226
▁힘들었다	-10.9227
▁유익	-10.9228
▁뜬금없	-10.923
보고싶은	-10.9231
▁기발	-10.9231
보니깐	-10.9232
▁결국엔	-10.9238
좋아하는데	-10.924
▁한글	-10.9244
똑같	-10.9244
▁알바생	-10.9247
▁레오	-10.9249
▁불쌍해서	-10.9251
▁상식	-10.9253
▁이딴거	-10.9255
보지마라	-10.9266
한텐	-10.9267
op	-10.9268
▁미안해	-10.9272
▁십점	-10.9272
모델	-10.9274
▁면이	-10.9277
▁경우	-10.9279
▁지금보면	-10.9279
.,.,	-10.9281
죽여	-10.9284
퇴	-10.9286
썩	-10.9288
킬링타임	-10.9288
▁애정	-10.9289
많은것을	-10.9296
▁자위	-10.9296
▁전라도	-10.9297
볼때마다	-10.9299
모르겠다	-10.9306
▁궁금해	-10.9311
▁밝혀	-10.9313
▁어울리	-10.9314
▁매주	-10.9315
▁나올까	-10.9317
▁최고인듯	-10.9319
평생	-10.9321
▁동감	-10.9324
▁토니	-10.9328
하겠지만	-10.9337
었을텐데	-10.9339
▁없으니	-10.9339
억울	-10.9343
같네요	-10.9351
im	-10.9352
위주	-10.9355
▁허접하고	-10.9358
▁인식	-10.936
학대	-10.9361
집에서	-10.9369
지루한	-10.9373
줄거리	-10.9378
년간	-10.9383
▁본듯한	-10.9389
▁안봄	-10.9392
▁힘내	-10.9395
▁장점	-10.9403
좋겠다	-10.9406
▁중학교	-10.941
▁필요하다	-10.9415
▁명작임	-10.9417
밋	-10.9418
킥	-10.9424
탠	-10.9424
▁스필버그	-10.9424
뎌	-10.9424
썻	-10.9424
▁가볍지	-10.9424
▁예뻐서	-10.9424
▁깨달음	-10.9424
▁엉뚱	-10.9424
▁픽션	-10.9424
▁컬트	-10.9425
▁색깔	-10.9425
▁절묘	-10.9426
><	-10.9427
▁2015	-10.9428
▁과장된	-10.9431
버그	-10.9433
▁대사와	-10.9435
▁음향	-10.944
▁번역	-10.9442
원래	-10.9442
▁모순	-10.9447
▁향한	-10.945
▁못따라	-10.945
▁경계	-10.9452
별점	-10.9454
▁인간적으로	-10.9457
▁싶었는데	-10.9459
▁내시간	-10.9461
▁자체로	-10.9466
써요	-10.9471
▁로마	-10.9472
▁날리	-10.9473
보지마세요	-10.9476
▁끝남	-10.9478
▁남긴	-10.948
▁오직	-10.9481
대장	-10.9482
테니	-10.9482
▁정석	-10.9484
만든영화	-10.9485
▁-_-;;	-10.949
하죠	-10.9496
▁머리속	-10.9518
무서움	-10.9519
그래픽	-10.9522
▁외면	-10.9524
▁청년	-10.9525
▁성적	-10.9528
▁후반부로	-10.9535
▁풀어내	-10.9536
▁흐르	-10.9536
입니까	-10.9537
▁스릴감	-10.954
et	-10.9541
거같네요	-10.955
천재	-10.9553
▁우울한	-10.9554
▁영상미와	-10.9558
겐	-10.9559
멋진	-10.956
민호	-10.956
▁비해서	-10.9563
원주고	-10.9572
▁흥미진진한	-10.9573
▁전설이	-10.9574
▁메세지를	-10.9581
먹으면	-10.9583
▁느껴졌	-10.9588
▁없군	-10.9597
나이트	-10.9601
먹음	-10.9602
▁최악임	-10.9616
하시면	-10.9621
▁시대적	-10.9626
▁바라보는	-10.9628
밑에	-10.963
▁괜찮을	-10.9635
웠던	-10.9638
▁이런것도	-10.9639
싼	-10.9646
쎄	-10.965
긍	-10.9651
▁겨울왕국	-10.9651
▁봤는지	-10.9651
▁소피마르소	-10.9651
▁학창시절	-10.9651
썬	-10.9651
▁싸이코패스	-10.9651
▁안녕하세요	-10.9651
▁엉망진창	-10.9651
▁구혜선	-10.9651
▁다이하드	-10.9651
▁간간히	-10.9651
▁김명민	-10.9651
▁최민수	-10.9651
▁지저분	-10.9651
▁영향을	-10.9651
▁스킵	-10.9652
잘어울리	-10.9653
▁기다렸	-10.9655
▁저평가	-10.966
떨어지는	-10.966
▁욕나온다	-10.966
2005	-10.9662
▁섞어	-10.9664
▁열광	-10.9664
▁출발	-10.9665
▁흥미롭지	-10.9665
▁국산	-10.9665
▁의견	-10.9666
▁공허	-10.9667
▁커피	-10.9668
없어요	-10.9669
▁냉정	-10.9669
▁감동적임	-10.9677
웠음	-10.9678
팬이라	-10.9679
▁치즈	-10.9681
▁뉴스	-10.9681
▁미술	-10.9683
▁신경쓰	-10.9685
▁식상하다	-10.9689
▁법정	-10.969
▁없애	-10.969
▁처음이네	-10.9691
겠는가	-10.9692
▁있었습니다	-10.9699
▁이은주	-10.97
▁만날	-10.9703
▁어케	-10.9703
▁기사	-10.9703
▁어디까지	-10.9705
▁에로물	-10.9707
설명	-10.9708
질러	-10.9712
다시보고싶	-10.9712
▁만든건지	-10.9715
▁실상	-10.9716
▁좋아했던	-10.9718
▁배울	-10.9719
넘치는	-10.9722
18	-10.9724
▁이따위로	-10.9726
척하는	-10.9726
했었다	-10.9728
▁빈약한	-10.9732
하는것도	-10.9734
▁아닌것	-10.9737
▁훈훈하고	-10.974
쪽으로	-10.9747
▁손색이	-10.9749
▁몇개	-10.9751
▁화가나	-10.9754
▁go	-10.9755
액	-10.9756
무서워	-10.9756
▁잘했다	-10.9758
선생님	-10.9759
아름다운	-10.976
▁약하다	-10.976
▁아련한	-10.9763
네이버	-10.9763
▁재밋어	-10.9764
▁중국영화	-10.9764
힘든	-10.9768
▁의도를	-10.9779
▁감동받	-10.978
엉성	-10.9788
노출	-10.9789
▁강제	-10.9791
하시네요	-10.9793
페이지	-10.9793
▁모여	-10.9794
시티	-10.9797
하나하나	-10.9798
신부	-10.9799
▁와닿지	-10.9812
ᄒᄒᄒᄒᄒ	-10.9819
▁역겹	-10.9822
대체	-10.9827
▁OOOO	-10.9833
▁감동입니다	-10.9833
▁형식	-10.9837
▁산만하	-10.9847
▁가져다	-10.9851
▁등장하는	-10.9855
▁보게되었	-10.9856
걸작	-10.9868
▁지워	-10.9868
▁살인자	-10.9871
▁알게된	-10.9872
ᄒᄒᄒᄒ	-10.9874
롯	-10.9879
인상깊었	-10.9882
뎁	-10.9884
묶	-10.9884
▁국어책	-10.9884
▁숨막히	-10.9884
▁안타까웠	-10.9884
▁어쨌든	-10.9884
얔	-10.9884
헨	-10.9884
▁웬만하면	-10.9884
▁농담	-10.9884
스러울	-10.9884
▁콜린	-10.9884
▁틀림없	-10.9885
▁심오한	-10.9885
▁관람객	-10.9886
파이팅	-10.9886
▁ᄋᄌ	-10.9886
▁람보	-10.9888
▁미친듯이	-10.9889
▁문득	-10.9889
▁시간아까워	-10.9892
▁고인의	-10.9893
십니다	-10.9893
▁패션	-10.9893
▁신세계	-10.9894
-.-	-10.9895
▁여태까지	-10.9897
▁재방송	-10.9898
▁중반부터	-10.9898
▁뭐랄까	-10.9899
▁지루했음	-10.9901
▁이기적인	-10.9904
▁적극	-10.991
▁터지는	-10.9911
▁재미없었음	-10.9913
자막	-10.9914
▁보는동안	-10.9915
▁가자	-10.9917
장군	-10.9919
▁향기	-10.9926
봤을땐	-10.9931
▁미치는	-10.9933
▁고작	-10.9935
CGV	-10.9935
▁네이버평점	-10.9944
할정도	-10.9946
▁믿을게	-10.9952
▁괴수	-10.996
▁개소리	-10.9972
▁좋구	-10.9972
▁기억남	-10.9983
▁재밋네요	-10.9983
감성	-10.9983
영씨	-10.9985
취향	-10.9988
중간에	-10.999
▁모아	-10.9995
▁죽일	-10.9996
▁장소	-10.9996
편부터	-10.9998
▁변신	-10.9999
▁데려다	-11.0001
쿨	-11.0001
잘봤습니다	-11.0003
▁마법	-11.0011
▁야하지도	-11.0011
▁끄는	-11.0012
것도아니고	-11.0015
했더니	-11.0016
▁통해서	-11.0019
▁베일	-11.002
성룡	-11.0021
재밋어요	-11.0025
상관없	-11.0033
ᄍᄍᄍ	-11.0037
▁되어야	-11.0041
끝날때까지	-11.0042
▁지금이나	-11.0042
▁죽는다	-11.0046
▁밀어	-11.0051
것들은	-11.0056
▁가상	-11.0057
▁좋아하지	-11.0067
않았다	-11.0083
▁198	-11.0084
▁깨닫	-11.0095
▁태어나	-11.0102
즌	-11.0107
▁호감	-11.0109
사장	-11.0113
흉	-11.0122
끗	-11.0122
쉣	-11.0122
▁엑스맨	-11.0122
▁트랜스포머	-11.0122
겸	-11.0122
펠	-11.0122
헝	-11.0122
훗	-11.0122
▁원주율	-11.0122
▁김민종	-11.0122
▁힙합	-11.0122
▁박평식	-11.0122
▁최민식	-11.0122
▁멈추	-11.0122
▁애국심	-11.0122
▁장동건	-11.0122
위원회	-11.0122
▁멀쩡	-11.0122
▁전지현	-11.0122
▁흑역사	-11.0123
▁색다르	-11.0123
▁학살	-11.0124
▁증명	-11.0124
안좋	-11.0124
▁갖춘	-11.0124
▁사라진	-11.0125
▁첫번째	-11.0126
안쓰는데	-11.0126
왔습니다	-11.0127
▁안성기	-11.0127
▁중후반	-11.0129
▁데뷔작	-11.0129
▁허탈	-11.0134
▁태양	-11.0135
▁러브스토리	-11.0135
▁아침드라마	-11.0135
▁환상적인	-11.014
▁모독	-11.014
▁질문	-11.0142
▁돈아깝다	-11.0144
▁좋아하시는	-11.0145
▁99	-11.0145
▁아이디	-11.0151
▁제왕	-11.0151
▁초반부터	-11.0153
▁부각	-11.0154
똑	-11.0154
▁이따구로	-11.0155
▁더욱더	-11.0155
▁늙었	-11.0157
▁소중하	-11.0165
▁굉장한	-11.0169
▁소소하	-11.0172
▁매운	-11.0173
▁가관	-11.0173
▁잼나요	-11.0173
▁자격	-11.0174
▁정통	-11.0178
▁조악	-11.0179
때리고	-11.0181
▁적당하다	-11.0186
▁보고싶네요	-11.0191
▁내놓	-11.0197
▁명작이라고	-11.021
▁많음	-11.0213
▁퇴보	-11.0225
직원	-11.0227
▁본적이	-11.0229
볼려고	-11.0235
▁돌아오	-11.0241
필드	-11.0241
비행	-11.0247
쌍	-11.0247
▁장난감	-11.0248
H	-11.0251
귀여워	-11.0252
한마디로	-11.0253
특유의	-11.0253
60	-11.0258
,,,,,,	-11.0259
주관적	-11.0263
유쾌	-11.0266
▁300	-11.0269
▁이영화보고	-11.0271
▁깔끔	-11.0274
▁없을까	-11.0277
▁대학생	-11.0298
▁보는사람	-11.0322
▁통쾌한	-11.0327
년동안	-11.0331
재미있음	-11.0331
▁불쾌한	-11.0338
설마	-11.0342
▁인도영화	-11.0347
섯	-11.0347
몇번	-11.0348
45	-11.0354
▁나올수	-11.0358
http	-11.0365
짬	-11.0366
펴	-11.0366
^_^	-11.0366
▁신데렐라	-11.0366
▁톰크루즈	-11.0366
▁흐지부지	-11.0366
둬	-11.0366
드래곤	-11.0366
▁이탈리아	-11.0366
▁정확히	-11.0366
▁더더욱	-11.0366
▁사무라이	-11.0366
▁오우삼	-11.0366
습니당	-11.0366
▁신세경	-11.0366
그나저나	-11.0366
찜찜	-11.0366
▁어떠한	-11.0366
▁드래곤볼	-11.0366
▁깜놀	-11.0366
▁ᄇᄉ	-11.0366
▁윽박	-11.0366
▁함부로	-11.0366
▁엽문	-11.0366
▁다니엘	-11.0366
▁모자란	-11.0366
▁웅장	-11.0367
▁아쉬웠지만	-11.0367
▁전도연	-11.0367
▁떠오르는	-11.0369
징그러	-11.037
밖엔	-11.0371
▁이민기	-11.0372
▁몰락	-11.0375
▁에릭	-11.0375
▁복수극	-11.038
▁지브리	-11.0381
▁쏘우	-11.0383
▁영광	-11.0386
▁유령	-11.0388
있을까	-11.0389
▁틀어주	-11.0393
▁백배	-11.0394
▁남기고	-11.0402
▁드물	-11.0407
▁의미없는	-11.0407
하잖아	-11.0408
엿다	-11.0412
볼꺼	-11.0414
▁울림	-11.0415
수가없다	-11.0417
▁홍구야	-11.0419
▁성경	-11.042
▁임신	-11.0422
타령	-11.0433
▁so	-11.0433
할텐데	-11.0439
▁추천한다	-11.0439
▁빠지게	-11.044
작전	-11.0444
▁그시절	-11.0449
ᄏᄏᄀᄏ	-11.045
주의자	-11.045
▁다른사람	-11.0458
▁슬펐다	-11.0463
▁명작이네요	-11.0465
바탕	-11.0468
졌던	-11.0468
▁특이한	-11.047
갈수	-11.0475
▁생각나게	-11.0479
▁날려	-11.048
▁레드	-11.0482
▁최하	-11.0482
달리	-11.0484
▁이해되	-11.0484
▁재밌게봤는데	-11.0484
쫌	-11.0509
▁따뜻함	-11.0511
본영화중에	-11.0515
필름	-11.0515
▁낚였네	-11.0516
▁환자	-11.0521
욬ᄏᄏᄏ	-11.0528
▁남자배우	-11.0533
▁아름다웠	-11.0537
변화	-11.0544
▁다시보게	-11.0549
▁끊어	-11.0549
▁비교하면	-11.0565
유머	-11.057
▁공포감	-11.058
믹	-11.0612
퉁	-11.0615
밉	-11.0616
뱅	-11.0616
샀	-11.0616
▁best	-11.0616
▁엉터리	-11.0616
▁인상깊게	-11.0616
긔	-11.0616
딕	-11.0616
▁매끄럽지	-11.0616
▁어설퍼	-11.0616
겄	-11.0616
뉘	-11.0616
▁미장센	-11.0616
▁아프리카	-11.0616
▁키아누	-11.0616
▁황정민	-11.0616
▁윌리스	-11.0616
▁의외의	-11.0616
▁일어날	-11.0616
▁솔까	-11.0616
▁완죤	-11.0616
▁납치	-11.0616
▁2003	-11.0617
▁이정재	-11.0617
▁8.5	-11.0617
탁월한	-11.0618
▁말아먹은	-11.062
▁보여줌	-11.062
▁낚여서	-11.0621
▁바꾼	-11.0622
▁짱짱맨	-11.0622
헌터	-11.0623
://	-11.0624
▁더럽다	-11.0625
▁극찬	-11.0626
▁마틴	-11.0628
▁황금	-11.063
라이브	-11.0631
▁실패작	-11.0632
▁노튼	-11.0633
점도아깝다	-11.0633
▁오글거려서	-11.0633
▁존잼	-11.0635
▁잔잔하지만	-11.0636
▁드문	-11.0637
▁우왕	-11.064
▁집단	-11.064
▁사람마다	-11.0641
와이프	-11.0642
▁한번씩	-11.0642
▁히트	-11.0644
▁단역	-11.0645
▁카피	-11.0647
▁교회	-11.0647
▁무슨말이	-11.0648
겁니까	-11.0656
연애	-11.0657
▁짧아	-11.0657
▁기록	-11.0661
▁두근	-11.0664
▁부럽다	-11.0666
ᄀᄀᄀ	-11.067
얘	-11.0679
▁답답해서	-11.068
▁보러갔	-11.0682
▁아름다웠다	-11.0682
▁유치하기	-11.0684
▁또봐도	-11.0693
▁에어형	-11.0698
▁있나요	-11.0699
▁안좋은	-11.0707
▁재밋는데	-11.0711
▁터져	-11.0711
▁담아	-11.0714
갔으면	-11.0716
만들엇	-11.072
찾기	-11.072
가아니라	-11.0722
하구만	-11.0735
▁생각했던	-11.0739
하라는	-11.0746
▁결말까지	-11.0766
점만점	-11.0766
그렇지	-11.0772
앜	-11.0772
개연성	-11.0773
히어로	-11.0774
cg	-11.078
▁조폭영화	-11.0786
▁뽑아	-11.0788
▁다음편	-11.0789
영웅	-11.079
때메	-11.0795
▁재밌게본	-11.0799
씩이나	-11.0804
▁진정성	-11.0807
▁허무함	-11.0808
▁마음속에	-11.0809
▁감상하	-11.0809
알바들	-11.0831
▁미스터	-11.0852
줬으면	-11.0853
뿔	-11.0863
펼	-11.0872
럿	-11.0872
릉	-11.0872
쌩	-11.0872
▁과대평가	-11.0872
▁윌리엄	-11.0872
▁홧팅	-11.0872
륵	-11.0872
밨	-11.0872
벙	-11.0872
빤	-11.0872
쌈	-11.0872
칩	-11.0872
코스프레	-11.0872
펀	-11.0872
푼	-11.0872
▁가슴아픈	-11.0872
▁끝판왕	-11.0872
▁똑바로	-11.0872
▁차태현	-11.0872
나옵니다	-11.0872
▁나미춘	-11.0872
▁정당화	-11.0872
▁징징	-11.0872
▁거슬리	-11.0873
▁젊음	-11.0873
▁찬사를	-11.0873
▁사라져	-11.0873
남편	-11.0874
▁경의를	-11.0875
▁죽기전에	-11.0877
▁상당한	-11.0878
▁돈낭비	-11.0878
왔던	-11.088
펙트	-11.088
▁고마운	-11.088
▁어딜	-11.0881
생겼	-11.0882
▁장혁	-11.0883
▁존스	-11.0883
▁우롱	-11.0886
▁필요없음	-11.089
▁불법	-11.0893
▁재밌기만	-11.0894
▁재미나게	-11.0895
노동자	-11.0896
▁울었습니다	-11.0899
▁겉멋만	-11.0901
▁몰랐는데	-11.0905
▁알려준	-11.0906
▁먹방	-11.0906
▁나오다니	-11.0909
PD	-11.091
▁안타깝네요	-11.0911
▁슬퍼요	-11.0913
겠냐	-11.0915
▁잼없음	-11.0915
▁재현	-11.0917
싶어서	-11.0919
▁슬프네요	-11.0926
▁하던가	-11.0926
▁무색	-11.0933
▁좋아하네요	-11.094
▁처음이네요	-11.0943
▁에러	-11.0944
▁재미있어서	-11.0945
클럽	-11.0945
작렬	-11.0947
▁없었는데	-11.0948
▁꼭봐야	-11.0948
합니까	-11.095
▁집어	-11.095
▁데미	-11.0957
▁할배	-11.0964
▁멀리	-11.0966
하느라	-11.0972
▁사망	-11.0973
▁고수	-11.0988
것같습니다	-11.0988
▁꺼내	-11.0999
▁볼만한데	-11.1002
▁어색함	-11.1025
▁에하	-11.1029
▁주먹	-11.1032
▁비현실적이	-11.1038
쪼	-11.1041
씹	-11.1041
저예산	-11.1043
왜이래	-11.1043
▁으아	-11.1052
그래요	-11.106
했냐	-11.1081
▁좋아한다	-11.1087
영상미	-11.1087
ᄏᄀᄏ	-11.1097
▁이따구	-11.11
▁모르나	-11.1105
///	-11.1113
엇어요	-11.1115
▁훈훈하	-11.1117
픔	-11.1117
▁아쉬워	-11.1128
풋풋	-11.113
첩	-11.1133
뜩	-11.1135
웰	-11.1135
▁다세포소녀	-11.1135
▁부끄러운	-11.1135
▁엉덩이	-11.1135
맷	-11.1135
쏙	-11.1135
핏	-11.1135
흰	-11.1135
Z	-11.1135
ᅦ	-11.1135
▁다크나이트	-11.1135
꺄	-11.1135
안타까워	-11.1135
▁김태희	-11.1135
▁공중파	-11.1135
▁긴박감	-11.1135
▁모성애	-11.1135
▁ᄆᄎ	-11.1135
▁여기저기	-11.1135
▁조용히	-11.1136
▁임청하	-11.1136
▁타이틀	-11.1136
▁레이첼	-11.1136
▁아이러니	-11.1136
▁혹평	-11.1136
▁2004	-11.1136
▁어지간	-11.1136
▁다운로드	-11.1136
▁사기꾼	-11.1137
▁노골적	-11.1137
▁크리스찬	-11.1138
▁눈요기	-11.1138
▁특수	-11.1138
▁담백하	-11.1139
버리네	-11.1139
▁짐승	-11.1139
▁성찰	-11.114
▁원작소설	-11.1141
▁억지설정	-11.1141
창있네	-11.1142
▁더럽고	-11.1142
up	-11.1142
▁휴먼	-11.1143
▁대표적인	-11.1145
▁못생겼	-11.1145
였으나	-11.1146
▁몇번이나	-11.1149
▁제정신	-11.115
▁절반	-11.1152
▁어깨	-11.1157
볼만한	-11.1158
부턴	-11.1158
▁잠자	-11.116
▁어렸을적	-11.116
따윈	-11.1163
▁불행	-11.1164
▁분명히	-11.1166
▁볼만했는데	-11.1167
▁요약	-11.1168
▁중학교때	-11.1169
♡♡	-11.1171
▁기독교인	-11.1175
▁도중에	-11.1179
졌습니다	-11.1184
▁초등학교때	-11.1185
▁첨이네	-11.1185
▁알겠지만	-11.1185
별반개도	-11.1187
▁울었던	-11.1187
▁좋아해요	-11.1195
▁그지같은	-11.1195
▁글쎄요	-11.1198
영화자체는	-11.1198
▁재밌당	-11.1203
활동	-11.1204
--;	-11.1209
▁썩어	-11.1212
▁남발	-11.1218
▁있으니	-11.1219
▁실화라는	-11.1223
만드네	-11.1228
▁차마	-11.1229
▁일본판	-11.1231
▁무리수	-11.1233
▁해피	-11.1233
▁찾아볼	-11.1233
▁존재하는	-11.124
등급	-11.1241
▁빌리	-11.1246
죽는줄	-11.1258
▁유혹	-11.1259
-_	-11.1283
써서	-11.1289
▁외국영화	-11.1292
▁압도	-11.1302
▁멋있어	-11.1305
▁손색	-11.131
울리	-11.1314
쭉	-11.1319
챙겨	-11.1322
완벽	-11.1325
아이돌	-11.1329
슬퍼	-11.1333
릇	-11.1335
다시봐도	-11.1336
해야한다	-11.1337
마냥	-11.1343
먼저	-11.1346
▁표정연기	-11.135
별루	-11.135
티비에서	-11.1372
▁끝날때	-11.1373
▁봐줄	-11.1389
이아니라	-11.1397
▁드러나	-11.1399
챙	-11.1401
씁	-11.1403
펑	-11.1405
둡	-11.1406
켈	-11.1406
흙	-11.1406
▁고맙습니다	-11.1406
▁드림웍스	-11.1406
▁미야자키	-11.1406
▁송혜교	-11.1406
▁인종차별	-11.1406
꼼	-11.1406
룹	-11.1406
샌	-11.1406
툰	-11.1406
▁자본주의	-11.1406
▁절제된	-11.1406
꿨	-11.1406
mbc	-11.1406
▁헷갈	-11.1406
▁어둡고	-11.1406
개인적으론	-11.1406
▁2013	-11.1406
떄문에	-11.1406
▁태어난	-11.1406
▁한쿡영화	-11.1406
▁오인혜	-11.1406
▁정신나간	-11.1406
▁사로잡	-11.1406
▁감수성	-11.1406
▁The	-11.1406
▁어쩌라고	-11.1407
▁끊임없	-11.1407
▁7.5	-11.1407
▁돋보인다	-11.1407
▁무너지	-11.1407
고싶지	-11.1408
▁모티브	-11.1408
묘사	-11.1409
▁짧게	-11.1409
▁가해자	-11.1409
▁놀랬	-11.1411
▁비싼	-11.1411
▁감옥	-11.1413
▁접근	-11.1414
등등	-11.1415
마른	-11.1416
▁존경합니다	-11.1416
▁지나친	-11.1417
▁서극	-11.1418
▁닮아	-11.1419
ol	-11.1419
▁출현	-11.1419
▁넘어선	-11.1423
▁총알	-11.1424
▁스토리라인	-11.1426
▁중간부터	-11.1427
덕후	-11.1428
▁대실망	-11.1433
▁떠들	-11.1435
▁일탈	-11.1436
▁남자라면	-11.1437
약간	-11.1442
▁예산	-11.145
▁나은듯	-11.1454
▁경제	-11.1456
▁슬프지만	-11.1456
▁없구나	-11.1457
▁훌륭함	-11.1459
▁먹먹하다	-11.1464
과도한	-11.1464
▁발레	-11.1467
▁아까워요	-11.1474
▁철학적인	-11.1475
하지마세요	-11.1476
▁전락	-11.1482
▁되었는데	-11.1485
▁잃어	-11.1501
▁누구냐	-11.1509
▁들어오	-11.1521
빼	-11.153
느님	-11.1533
▁향해	-11.1538
알았	-11.1542
하고픈	-11.1552
▁존재한다	-11.1558
▁몰입되	-11.1569
▁잃지	-11.1574
▁예술성	-11.1578
▁존재감	-11.1589
▁어린이들	-11.1598
레이드	-11.1602
낙	-11.1605
짓거리	-11.161
불륜	-11.161
▁성룡영화	-11.162
지마시길	-11.1625
일수도	-11.1633
대단히	-11.1649
▁부럽	-11.1649
것일까	-11.1658
▁환상적이	-11.1661
▁가려	-11.1661
♡♡♡	-11.1672
넼	-11.1678
달까	-11.1681
↓	-11.1683
▁뮤직비디오	-11.1683
▁용두사미	-11.1683
▁팀버튼	-11.1683
▁파워레인저	-11.1683
웩	-11.1683
탭	-11.1683
▁똑똑	-11.1683
▁뚝뚝	-11.1683
▁뜨거운	-11.1683
▁송지효	-11.1683
▁클린트	-11.1683
▁팍팍	-11.1683
▁두려움	-11.1683
▁나쁘진	-11.1684
▁비정상	-11.1684
▁이연희	-11.1684
▁플레이	-11.1684
▁흐뭇	-11.1684
▁암걸리	-11.1684
▁힘내세요	-11.1685
앵글	-11.1686
▁뉴욕	-11.1686
▁즐겁고	-11.1686
▁내인생최고의	-11.1688
배속으로	-11.1688
▁초능력	-11.1689
그자체	-11.1689
▁비롯	-11.1689
▁코배형	-11.1689
홍보	-11.1691
▁구멍	-11.1691
▁사라졌	-11.1693
영화관에서	-11.1696
▁잘생기고	-11.1697
▁멋잇	-11.1701
▁볼만해요	-11.1703
▁사랑스럽	-11.1705
▁그지없	-11.1713
▁산타	-11.1714
파티	-11.1718
▁받아들이	-11.1719
▁사실적으로	-11.172
▁현실적으로	-11.1723
▁98	-11.1723
이건뭐	-11.1729
멘트	-11.1735
▁피터	-11.1735
▁얘들	-11.1736
▁최고였습니다	-11.1736
▁누워	-11.1739
나오길	-11.1743
▁미국판	-11.1744
▁담아내	-11.1746
▁개독	-11.1749
베르	-11.1754
▁끌려	-11.176
▁나누	-11.1767
▁선동영화	-11.1768
겠군	-11.1769
▁그지같	-11.177
▁다시보고싶은	-11.1794
▁좋았어	-11.1796
라기보다	-11.1801
야되는데	-11.1803
▁엉성함	-11.1811
녀석들	-11.1827
낚였	-11.1836
▁광팬	-11.1841
▁죽을뻔	-11.1877
▁불편함	-11.1878
러브	-11.1894
봣음	-11.1898
깎	-11.1898
톰	-11.1899
카메라	-11.19
진정한	-11.1904
왜이리	-11.1905
시간낭비	-11.1905
흐름	-11.1905
줬는데	-11.191
좋았어요	-11.1923
반복	-11.1925
▁기억될	-11.1926
관련	-11.1951
제작비	-11.1952
영환줄	-11.1962
쯧	-11.1969
쏠	-11.1969
▁고스란히	-11.1969
▁서프라이즈	-11.1969
▁웹툰	-11.1969
▁인터뷰	-11.1969
▁일베충	-11.1969
▁임권택	-11.1969
▁찝찝한	-11.1969
▁카메론	-11.1969
▁클리셰	-11.1969
뱉	-11.1969
쑤	-11.1969
엎	-11.1969
▁양동근	-11.1969
▁어우러진	-11.1969
▁말았어야	-11.1969
▁주상욱	-11.1969
댐	-11.1969
▁김강우	-11.1969
▁조승우	-11.1969
▁구역질	-11.197
▁불후의	-11.197
▁신민아	-11.197
▁일요일	-11.197
▁이범수	-11.197
ᄐᄐ	-11.197
▁흥미롭고	-11.1971
▁잃어버린	-11.1971
▁김구라	-11.1971
▁은퇴	-11.1972
봣습니다	-11.1973
▁알게해준	-11.1974
▁유지태	-11.1974
▁모르겟다	-11.1975
▁환불	-11.1976
▁깨알	-11.1977
▁친절	-11.1979
▁그럼에도	-11.1979
▁활용	-11.1979
▁지들끼리	-11.1981
▁산만한	-11.1982
점대라니	-11.1982
▁어이없어서	-11.1983
▁성숙	-11.1984
▁추락	-11.1985
▁여왕	-11.1991
▁타락	-11.1991
▁간절	-11.1992
▁감동받았	-11.1993
▁돌려줘	-11.1994
▁신념	-11.1995
▁좋아한다면	-11.1998
▁없었으면	-11.2003
싶을때	-11.2011
▁봐야겠다	-11.2011
▁생각나네요	-11.2014
▁뻔히	-11.2016
▁허무하게	-11.2019
▁관객에게	-11.2019
▁아동용	-11.202
교육	-11.2022
같았음	-11.2023
▁주목	-11.2027
▁깎아	-11.203
▁존내	-11.2034
▁어린이용	-11.2034
▁사나이	-11.2044
▁전투씬	-11.2057
▁않았으면	-11.2066
욬	-11.207
▁선정적	-11.207
조각	-11.2087
▁197	-11.2094
재미잇	-11.2094
폭탄	-11.2114
괴물	-11.2121
죽이는	-11.2127
▁던지는	-11.2137
내놔	-11.2138
▁외치	-11.2158
▁수준이하	-11.2164
▁의식	-11.2171
요소를	-11.2177
▁조금씩	-11.2188
인간들	-11.2189
꽝	-11.2203
아줌마	-11.2203
느와르	-11.2203
▁되돌아	-11.2213
흥미를	-11.2218
시켜주	-11.2219
▁단편영화	-11.2223
존재	-11.2234
예능	-11.2235
▁오글거려	-11.2243
번씩	-11.2256
▁리메이크작	-11.226
▁떠오르	-11.2262
맙	-11.2263
듀	-11.2263
▁ebs	-11.2263
▁놀래키	-11.2263
▁서스펜스	-11.2263
▁유튜브	-11.2263
▁펭귄	-11.2263
됌	-11.2263
뒀	-11.2263
뺨	-11.2263
샷	-11.2263
쉰	-11.2263
엣	-11.2263
콕	-11.2263
텀	-11.2263
톨	-11.2263
▁베트남	-11.2263
▁환타지	-11.2263
▁하이킥	-11.2263
▁큐브	-11.2263
▁강지환	-11.2263
▁특징	-11.2264
▁임수정	-11.2264
▁러셀	-11.2264
▁닥터	-11.2264
씨리즈	-11.2264
^.^	-11.2264
▁퍼즐	-11.2264
▁어울려	-11.2264
▁온몸	-11.2266
▁찾아볼수	-11.2266
▁이해안가	-11.2266
▁일깨워주는	-11.2266
▁증말	-11.2266
▁가끔씩	-11.2266
▁닮은	-11.2267
▁푸른	-11.2267
▁고찰	-11.2268
▁이름값	-11.2268
▁묻혀	-11.2269
ge	-11.2269
▁빠져드는	-11.2271
▁증거	-11.2271
▁언론	-11.2271
▁자세히	-11.2271
▁알았더니	-11.2271
▁쓰렉	-11.2272
▁쯔양님	-11.2274
▁지루했어요	-11.2277
▁않았을까	-11.2278
▁끼워	-11.2281
▁재료	-11.2281
▁가르쳐	-11.2282
▁놀라울	-11.2282
▁여튼	-11.2282
▁중반부	-11.2284
▁리액션	-11.2284
▁언급	-11.2285
▁지났지만	-11.2285
▁물씬	-11.2286
▁공감가는	-11.2287
▁우익	-11.2289
거든요	-11.2289
▁깔끔하고	-11.2289
▁초중반	-11.2291
짱짱짱	-11.2292
▁때문이다	-11.2293
▁상영시간	-11.2296
▁엉성하다	-11.2296
▁병원	-11.2299
▁최고였어요	-11.2303
▁도통	-11.2307
▁됐는데	-11.2312
▁감동도없고	-11.2316
배우님	-11.2329
▁비극적	-11.2339
▁필수	-11.2344
▁초딩들	-11.2345
▁볼거없	-11.235
▁드러내	-11.2352
영화제에서	-11.2358
95	-11.2374
엿음	-11.2379
▁중반까지	-11.2379
▁고르	-11.2379
▁압도적	-11.2389
▁모른	-11.2403
▁합쳐	-11.2416
▁진부함	-11.2421
▁재미있었던	-11.2425
같습니다	-11.2429
머릿속	-11.2478
관계를	-11.2498
▁붙여	-11.2514
J	-11.2514
낳	-11.2515
OST	-11.2516
감사합니다	-11.2516
훨씬	-11.2517
극장판	-11.2528
좋앗	-11.2528
빼면	-11.2529
▁어처구니없	-11.2531
젼	-11.2545
방법	-11.2546
같으니	-11.2549
천국	-11.2551
콧	-11.2562
률	-11.2566
쿡	-11.2566
▁컨저링	-11.2566
냅	-11.2566
샹	-11.2566
▁기대됩니다	-11.2566
▁매트릭스	-11.2566
▁보냅니다	-11.2566
▁오리지널	-11.2566
▁재발견	-11.2566
人	-11.2566
륙	-11.2566
재밌게봤습니다	-11.2566
췄	-11.2566
탔	-11.2566
펄	-11.2566
▁ocn	-11.2566
▁내러티브	-11.2566
팡	-11.2566
핳	-11.2566
▁맙시다	-11.2566
▁어울린다	-11.2566
▁멘붕	-11.2566
▁삽입	-11.2566
▁잠수함	-11.2567
▁저절로	-11.2567
▁록키	-11.2568
▁묘하게	-11.2568
▁흡사	-11.2568
바이러스	-11.2568
▁이뻐요	-11.2568
▁위대함	-11.2568
▁침묵	-11.2568
▁묘미	-11.2568
▁간첩	-11.2568
씁니다	-11.2568
▁새롭게	-11.2568
▁축하	-11.2569
▁별한개도	-11.2569
▁생략	-11.2569
▁패턴	-11.2569
▁저녁	-11.257
▁스티브	-11.257
▁말이필요없는	-11.2571
▁정치적	-11.2572
▁잃고	-11.2573
▁대표작	-11.2574
▁잔인하기만	-11.2575
▁역쉬	-11.2576
▁브금	-11.2576
▁구리다	-11.2577
▁맞춘	-11.258
▁바랬	-11.2582
ᄒᄏᄒᄏ	-11.2582
▁빡치	-11.2584
▁절실	-11.2584
▁해도해도	-11.2584
동아리	-11.2587
▁딱딱	-11.2588
▁만들어주세요	-11.2588
▁이번엔	-11.2589
▁내보내	-11.2591
▁전세계	-11.2592
▁원표	-11.2594
▁헐크	-11.2598
▁창조	-11.2599
▁알수없는	-11.26
▁노예	-11.261
▁모르겠는데	-11.261
▁이나영	-11.2614
▁고발	-11.2617
▁더빙판	-11.2635
ll	-11.2637
그릇	-11.2647
▁비현실적인	-11.2671
황당	-11.2678
▁아쉽긴	-11.2682
채널에서	-11.2702
▁서사	-11.2703
올림	-11.2708
티브	-11.2749
▁악평	-11.2754
ᅳᅮ	-11.2762
쳤던	-11.2799
녀석	-11.2832
뽑	-11.2838
넌	-11.2838
퀄리티	-11.2838
▁읽어보	-11.2841
다음으로	-11.2843
▁겉멋	-11.2843
슈퍼	-11.2844
10000	-11.2845
탈출	-11.2847
괜히	-11.2847
낮아서	-11.2848
같았는데	-11.2852
▁공짜	-11.2871
줍	-11.2877
쳐먹	-11.2878
q	-11.2879
꼰	-11.2879
ᄑ	-11.2879
▁KBS	-11.2879
▁두근두근	-11.2879
▁슬래셔	-11.2879
▁에일리언	-11.2879
▁이스트우드	-11.2879
▁인터스텔라	-11.2879
▁채플린	-11.2879
▁콘서트	-11.2879
▁혹성탈출	-11.2879
댈	-11.2879
엥	-11.2879
젓	-11.2879
횽	-11.2879
▁예뻐요	-11.2879
▁오타쿠	-11.2879
▁미치도록	-11.2879
▁박신양	-11.2879
▁홍금보	-11.2879
▁기분좋게	-11.2879
▁불면증	-11.2879
▁나발이고	-11.2879
▁관람불가	-11.2879
▁섭외	-11.2879
▁케이트	-11.2879
▁빅뱅	-11.2879
▁오그라든다	-11.2879
▁화려함	-11.2879
▁집어넣	-11.288
▁나타내	-11.288
▁그들만의	-11.288
ᅩᅩ	-11.288
▁잘만들어진	-11.288
▁유아인	-11.2881
▁둘째	-11.2881
▁스콧	-11.2882
▁묻어나는	-11.2883
▁씁쓸한	-11.2883
▁경쾌	-11.2884
▁재평가	-11.2886
▁No	-11.2886
▁얼른	-11.2887
▁적절히	-11.2887
▁당최	-11.2888
▁응원합니다	-11.2888
▁마음속	-11.2889
▁케이지	-11.2889
▁아까웠던	-11.289
▁느낌이랄까	-11.2891
▁신나게	-11.2895
▁악플	-11.2895
▁모든것을	-11.2896
▁웃어야	-11.2896
▁비현실적	-11.2897
▁동료	-11.2898
▁공존	-11.29
▁고향	-11.2901
▁속아서	-11.2901
▁말아라	-11.2902
봣던	-11.2902
▁지금껏	-11.2903
▁금방	-11.2903
붕괴	-11.2906
▁장나라	-11.2906
헤헤	-11.2909
▁많았던	-11.291
▁심심해서	-11.2913
▁무얼	-11.2915
▁볼만했음	-11.2917
알수있	-11.2917
▁몽환적인	-11.2921
되었던	-11.2926
▁멋있어요	-11.2928
▁허술하다	-11.2928
▁중요하다	-11.2935
▁만들겠다	-11.2936
▁소름돋았	-11.2938
해주길래	-11.2968
▁같기도	-11.2971
▁가졌	-11.2977
해줬으면	-11.2977
▁죽을때	-11.2979
파괴	-11.2987
ill	-11.3061
버렸음	-11.3085
빼놓	-11.3103
끼들	-11.3107
본것중	-11.3116
▁굉장	-11.3133
▁바라보	-11.3152
채널	-11.3163
끊	-11.3171
녹	-11.3171
저렇게	-11.3172
슬픈	-11.3179
교훈	-11.3187
종류	-11.3192
뭇	-11.3201
뻘	-11.3201
쌤	-11.3201
▁가볍고	-11.3201
▁스칼렛	-11.3201
▁쌩뚱맞	-11.3201
▁어설픔	-11.3201
▁역사왜곡	-11.3201
▁크리스토퍼	-11.3201
뇨	-11.3201
묵직한	-11.3201
쌀	-11.3201
쿄	-11.3201
햄	-11.3201
▁쏠쏠	-11.3201
▁홍진호	-11.3201
▁어떨까	-11.3201
▁탕웨이	-11.3201
#	-11.3202
▁뒤집어	-11.3202
▁못생긴	-11.3202
▁스텝업	-11.3202
봅시다	-11.3202
▁사다코	-11.3202
▁빵터짐	-11.3202
▁훈남	-11.3203
▁고질라	-11.3203
▁2001	-11.3203
▁어쩌라는	-11.3203
▁담아낸	-11.3203
을위해	-11.3204
▁이승기	-11.3204
▁무게감	-11.3206
▁용가리	-11.3206
▁웬만한	-11.3206
싫	-11.3206
▁하얀	-11.3206
▁결합	-11.3207
▁루즈하	-11.3207
▁과잉	-11.3207
▁호텔	-11.3207
할수밖에	-11.3207
▁지루하지않고	-11.3208
넼ᄏᄏᄏᄏ	-11.3208
▁때우기	-11.3208
▁감동적이었습니다	-11.3209
▁질질짜	-11.321
중요한	-11.321
잔인하	-11.321
▁적응	-11.3212
▁스릴있고	-11.3215
▁깔끔하게	-11.3216
▁위하여	-11.3216
▁줄리아	-11.3217
▁내겐	-11.3218
▁다를게	-11.3219
▁팬이라면	-11.322
▁시간아까움	-11.322
▁느린	-11.322
▁질투	-11.3221
짱좋아	-11.3223
▁따뜻하게	-11.3223
▁치열	-11.3223
▁씨발	-11.3224
▁do	-11.3225
▁봤었던	-11.3225
▁멋있었다	-11.3227
▁차원이	-11.3228
▁느꼈던	-11.323
▁실화라니	-11.3231
▁젊은이들	-11.3236
좋아할만한	-11.3244
▁첫장면	-11.3268
▁오락성	-11.3284
재밋게봣	-11.3314
▁집중력	-11.3368
객관적으로	-11.3376
ul	-11.3383
볼수없	-11.34
너무많	-11.3436
▁봐왔	-11.3469
로인해	-11.3483
▁밑에분	-11.3485
몇번이고	-11.3499
짤	-11.3515
곰	-11.3515
W	-11.3515
캬	-11.3516
매니아	-11.3516
엉망	-11.3532
겜	-11.3535
▁리암니슨	-11.3535
▁휴머니즘	-11.3535
⫬	-11.3535
갸	-11.3535
귓	-11.3535
넴	-11.3535
샬	-11.3535
쿤	-11.3535
▁뭔내용인지	-11.3535
▁소름끼친다	-11.3535
꽂	-11.3535
닦	-11.3535
됴	-11.3535
쌔	-11.3535
욧	-11.3535
▁양조위	-11.3535
▁줄리엣	-11.3535
▁강혜정	-11.3535
안남기는데	-11.3535
▁신현준	-11.3535
▁흘렀	-11.3535
▁강호동	-11.3535
▁몬스터	-11.3535
▁충무로	-11.3535
▁불필요한	-11.3535
▁어려울	-11.3535
▁안쓰러	-11.3535
▁나중엔	-11.3535
스캔들	-11.3535
▁전문성우	-11.3535
▁이순신	-11.3535
▁정재영	-11.3536
김남길	-11.3536
▁슈렉	-11.3536
▁유아용	-11.3536
▁0.5	-11.3537
▁대도님	-11.3537
▁거대한	-11.3537
▁촬영기법	-11.3537
▁자칫	-11.3537
▁어려웠	-11.3537
▁에로틱	-11.3537
▁팔아먹	-11.3537
▁레이싱	-11.3537
▁황홀	-11.3537
▁꺼버렸다	-11.3539
▁촌스러운	-11.3539
▁과장되	-11.3539
▁갖추	-11.3539
@@	-11.354
▁발휘	-11.354
ery	-11.354
점드림	-11.3542
▁신파극	-11.3542
▁프레디	-11.3543
▁정도껏	-11.3546
▁언제쯤	-11.3546
삭제	-11.3547
▁와이어	-11.3547
▁오싹	-11.3547
▁종합	-11.3548
▁느꼈습니다	-11.3548
▁말할것도	-11.3548
▁아름다웠던	-11.3552
▁처참	-11.3552
▁호평	-11.3555
▁재미있던데	-11.3555
버젼	-11.3558
▁고백	-11.3559
▁대가리	-11.3562
▁도덕	-11.3564
▁탄탄하	-11.3579
▁예수님	-11.3581
▁앞부분	-11.3593
▁경쟁	-11.3594
▁조용하	-11.3615
▁맞지않	-11.362
▁어수선하	-11.3637
ig	-11.3642
▁풀었	-11.38
나쁘지않	-11.3815
잊혀지	-11.3849
재미가없	-11.3857
▁사실적이	-11.386
▁심심하	-11.3861
빅	-11.3872
웬	-11.3873
오히려	-11.3874
튜	-11.3877
렘	-11.3878
죤	-11.3879
훔	-11.3879
흥행	-11.3879
햅	-11.3879
쵝	-11.3879
훼	-11.388
썽	-11.388
촉	-11.388
▁kbs	-11.388
▁리즈시절	-11.388
▁서부극	-11.388
▁스탤론	-11.388
▁아메리칸	-11.388
▁웨슬리	-11.388
▁인상깊은	-11.388
괘	-11.388
뺀	-11.388
씌	-11.388
안봤으면	-11.388
쬐	-11.388
▁브래드피트	-11.388
▁에이리언	-11.388
▁왠만해선	-11.388
▁후덜덜	-11.388
▁김하늘	-11.388
▁무슨내용인지	-11.388
욜	-11.388
▁올레티비	-11.388
▁치밀한	-11.388
▁로드무비	-11.388
-0-	-11.388
▁이동욱	-11.388
▁잘생김	-11.388
▁알맹이	-11.388
쥐어짜	-11.388
▁뛰쳐	-11.388
▁and	-11.388
▁옹박	-11.388
▁한정된	-11.388
▁콤비	-11.388
▁박해일	-11.388
짜증난다	-11.388
▁이성재	-11.3881
▁흔히	-11.3881
bbbb	-11.3881
▁루이스	-11.3883
▁가득찬	-11.3883
▁쌍욕	-11.3884
예고편	-11.3884
▁어둠	-11.3884
▁새롭고	-11.3884
▁화가난다	-11.3886
▁적나라하	-11.3886
▁악몽	-11.3886
▁깨알같은	-11.3886
▁회복	-11.3887
▁저평가된	-11.3887
▁실컷	-11.3887
▁억지스러움	-11.3887
▁선율	-11.3889
▁첨본다	-11.3889
▁뇌리에	-11.389
▁껏다	-11.389
▁습작	-11.3891
▁대략	-11.3893
▁찾았다	-11.3893
▁놓친	-11.3894
▁미안하지만	-11.3894
▁몰입하면서	-11.3898
▁끝내주는	-11.3899
재밋엇	-11.3913
싶을정도	-11.3925
과정을	-11.396
때문인지	-11.3971
그치만	-11.3974
▁어린애들	-11.3981
같았다	-11.4076
절대보지마	-11.41
▁기분좋은	-11.4104
▁나쁜놈	-11.4116
▁어이가없	-11.4118
어수선	-11.4133
▁볼게없	-11.4188
버렸어	-11.4214
▁탁월	-11.4234
naver	-11.4237
도그렇고	-11.4237
▁페이크	-11.4237
ᅣ	-11.4237
▁어벤져스	-11.4237
▁찝찝함	-11.4237
▁최곱니다	-11.4237
쫙	-11.4237
▁원맨쇼	-11.4237
솟	-11.4237
짖	-11.4237
프로젝트	-11.4237
▁듣보잡	-11.4237
▁떠올리게	-11.4237
▁무의미한	-11.4237
▁크루즈	-11.4237
○	-11.4237
▁한예슬	-11.4237
▁문근영	-11.4237
▁추악한	-11.4237
▁졸업작품	-11.4237
지맙시다	-11.4237
▁단체로	-11.4237
▁깜찍	-11.4237
▁고현정	-11.4237
▁페이크다큐	-11.4237
▁연관성	-11.4237
▁금요일	-11.4237
tion	-11.4237
▁2008	-11.4237
▁유오성	-11.4237
▁빨리감기	-11.4237
▁차가운	-11.4237
허니잼	-11.4238
기승전	-11.4238
▁나눠	-11.4238
▁어려워	-11.4239
뿐더러	-11.4239
▁매튜	-11.4239
▁꺼버림	-11.4239
▁일어난	-11.4239
▁소리지르	-11.424
펑펑	-11.424
▁조인성	-11.424
읍니다	-11.424
▁my	-11.4241
▁중독성	-11.4241
▁흥해라	-11.4241
▁끝내준다	-11.4243
▁육체	-11.4243
뮤지컬	-11.4244
짠	-11.4244
good	-11.4246
▁재치있	-11.4246
▁느껴짐	-11.4246
▁투표	-11.4247
▁일대기	-11.4247
▁출연료	-11.4251
▁괜찮던데	-11.4251
청춘	-11.4254
어쩔수없	-11.4254
별한개	-11.4258
▁즐겨보	-11.4271
취향은	-11.4272
을위한	-11.429
all	-11.4309
기다리	-11.4311
지말아야	-11.4331
기억에남는	-11.4389
▁서민	-11.4402
▁객관적	-11.4409
▁특별하	-11.4475
▁드러난	-11.4482
있으면서	-11.4564
▁엌ᄏᄏ	-11.4586
444	-11.4599
펐	-11.4607
윙	-11.4607
갤	-11.4607
덥	-11.4607
▁로보캅	-11.4607
▁엑스트라	-11.4607
▁초콜릿	-11.4607
궈	-11.4607
돕	-11.4607
좁	-11.4607
퍽	-11.4607
힛	-11.4607
▁까메오	-11.4607
▁멜깁슨	-11.4607
▁보면볼수록	-11.4607
▁쌍팔년도	-11.4607
▁유치뽕짝	-11.4607
댔	-11.4607
빔	-11.4607
얹	-11.4607
잌	-11.4607
쪄	-11.4607
햐	-11.4607
▁떠오른다	-11.4607
▁하루종일	-11.4607
▁브래드	-11.4607
▁스타일리쉬	-11.4607
▁중딩때	-11.4607
▁노무현	-11.4607
▁덴젤	-11.4607
▁무책임	-11.4607
▁지하철	-11.4607
썹	-11.4607
하셨습니다	-11.4607
▁싱겁	-11.4607
▁눈뜨고	-11.4607
▁장쯔이	-11.4607
▁즐거워	-11.4607
▁애절한	-11.4607
▁훈련	-11.4607
▁피라냐	-11.4607
▁최선을	-11.4608
테잎	-11.4608
▁압박	-11.4608
▁옹호	-11.4608
오디션	-11.4608
▁가면갈수록	-11.4608
▁에너지	-11.4608
▁믿겨지지	-11.4608
▁여진구	-11.4608
▁효민	-11.4608
▁크리스틴	-11.4608
▁나타난	-11.4609
헬	-11.4628
둠	-11.4987
걱	-11.4987
ᆞ	-11.4992
·	-11.4992
ᅭ	-11.4992
’	-11.4992
껍	-11.4992
롬	-11.4992
밭	-11.4992
얌	-11.4992
쨩	-11.4992
꿋	-11.4992
맵	-11.4992
[	-11.5028
꽤	-11.5029
쩡	-11.5391
뭥	-11.5391
삽	-11.5391
찜	-11.5391
훌	-11.5392
갇	-11.5392
붓	-11.5392
깬	-11.5392
씽	-11.5392
웡	-11.5392
윰	-11.5392
캅	-11.5392
늠	-11.5392
쵸	-11.5392
훅	-11.5392
\	-11.5392
밑	-11.5676
곁	-11.5718
얀	-11.5802
륭	-11.5808
힙	-11.5808
곸	-11.5808
쟝	-11.5808
귤	-11.5808
짭	-11.5808
횡	-11.5808
힝	-11.5808
뜰	-11.5808
띄	-11.5878
펙	-11.6229
밌	-11.6237
낄	-11.6242
뵈	-11.6243
셰	-11.6243
뛴	-11.6243
뤘	-11.6243
뤽	-11.6243
붐	-11.6243
얕	-11.6243
핍	-11.6243
몹	-11.6243
밸	-11.6243
텍	-11.6243
얻	-11.6334
늑	-11.6696
캔	-11.6697
ᅧ	-11.6698
‘	-11.6698
깽	-11.6698
낱	-11.6698
썅	-11.6698
Q	-11.6698
굼	-11.6698
웁	-11.6698
윗	-11.6698
퀼	-11.6698
꺅	-11.6698
및	-11.6809
냉	-11.681
낌	-11.7171
싯	-11.7174
욥	-11.7174
팜	-11.7174
“	-11.7174
슌	-11.7174
옄	-11.7174
욘	-11.7174
융	-11.7174
컵	-11.7174
됀	-11.7174
앳	-11.7174
휼	-11.7174
|	-11.7174
헉	-11.7308
땀	-11.7309
떤	-11.7648
첼	-11.7673
젬	-11.7674
풉	-11.7674
乃	-11.7674
꾀	-11.7674
꿉	-11.7674
돠	-11.7674
뚤	-11.7674
뱃	-11.7674
쑈	-11.7674
챔	-11.7674
퀘	-11.7674
쾅	-11.7674
맡	-11.7836
푹	-11.7837
뷔	-11.8199
멕	-11.82
걔	-11.82
댜	-11.82
볶	-11.82
빽	-11.82
뺐	-11.82
쁠	-11.82
샴	-11.82
섰	-11.82
욯	-11.82
뺏	-11.839
켰	-11.8723
”	-11.8756
→	-11.8756
甲	-11.8756
굽	-11.8756
뇬	-11.8756
땟	-11.8756
떴	-11.8756
쉘	-11.8756
읎	-11.8756
쟤	-11.8756
춥	-11.8756
갚	-11.8756
짚	-11.8756
캣	-11.8756
뻥	-11.8979
훨	-11.898
곧	-11.898
쩐	-11.9254
칫	-11.934
귄	-11.9344
렙	-11.9344
뭍	-11.9344
ᄈ	-11.9344
♬	-11.9344
겔	-11.9344
굶	-11.9344
댁	-11.9344
랰	-11.9344
룻	-11.9344
맬	-11.9344
숴	-11.9344
웹	-11.9344
잰	-11.9344
킁	-11.9344
킷	-11.9344
퐁	-11.9344
훤	-11.9344
넉	-11.9344
죵	-11.9344
컹	-11.9344
퉷	-11.9344
넥	-11.9344
헛	-11.9605
녁	-11.9962
헷	-11.9969
、	-11.9969
꿰	-11.9969
쨔	-11.9969
됏	-11.9969
뮬	-11.9969
젝	-11.9969
좃	-11.9969
껑	-11.9969
쏜	-11.9969
찼	-11.9969
쳇	-11.9969
툴	-11.9969
핰	-11.9969
無	-11.9969
괄	-11.9969
뤠	-11.9969
샐	-11.9969
첸	-11.9969
뎈	-12.0029
땜	-12.0535
킵	-12.0632
숫	-12.0634
겅	-12.0636
륨	-12.0636
멧	-12.0636
믓	-12.0636
뷁	-12.0636
슥	-12.0636
쪙	-12.0636
칵	-12.0636
벡	-12.0636
뿅	-12.0636
뿍	-12.0636
쒯	-12.0636
밝	-12.0985
뗄	-12.0985
끽	-12.135
눅	-12.135
뺑	-12.135
샵	-12.135
텨	-12.135
껌	-12.135
얍	-12.135
쳣	-12.135
꼐	-12.135
넛	-12.135
눕	-12.135
돔	-12.135
왁	-12.135
홉	-12.135
휙	-12.135
흣	-12.135
멱	-12.135
깼	-12.135
챈	-12.135
뒷	-12.1756
렜	-12.2119
슐	-12.2119
꽈	-12.2119
뻗	-12.2119
햌	-12.2119
헿	-12.2119
ᄄ	-12.2119
』	-12.2119
끙	-12.2119
냔	-12.2119
넨	-12.2119
뒹	-12.2119
뿡	-12.2119
섀	-12.2119
쫑	-12.2119
퀵	-12.2119
팰	-12.2119
갯	-12.2119
꺠	-12.2119
랔	-12.2119
넝	-12.2119
꼇	-12.2952
갘	-12.2952
혓	-12.2952
괸	-12.2952
뎃	-12.2952
벳	-12.2952
쎈	-12.2952
졷	-12.2952
찹	-12.2952
콱	-12.2952
ᆪ	-12.2952
『	-12.2952
쑥	-12.2952
펭	-12.2952
×	-12.2953
ᄡ	-12.3497
컥	-12.3859
쒸	-12.3862
잦	-12.3862
줏	-12.3862
쓱	-12.3862
옼	-12.3862
읭	-12.3862
궤	-12.3862
깟	-12.3862
냠	-12.3862
놉	-12.3862
뒈	-12.3862
쥰	-12.3862
쨰	-12.3862
쫘	-12.3862
큭	-12.3862
툼	-12.3862
팁	-12.3862
랖	-12.3862
밓	-12.3862
쮸	-12.3862
눔	-12.3862
{	-12.3862
}	-12.3862
봅	-12.4859
잎	-12.486
닛	-12.4862
롹	-12.4862
맄	-12.4862
뺄	-12.4862
앱	-12.4862
녜	-12.4862
딛	-12.4862
딥	-12.4862
숏	-12.4862
앰	-12.4862
짰	-12.4862
챤	-12.4862
쿼	-12.4862
死	-12.4862
떵	-12.4862
팟	-12.4862
$	-12.4862
옛	-12.5606
뭣	-12.5608
女	-12.5973
츈	-12.5973
귯	-12.5973
롸	-12.5973
뤼	-12.5973
빰	-12.5973
쏭	-12.5973
읊	-12.5973
⌒	-12.5973
♪	-12.5973
❤	-12.5973
作	-12.5973
궂	-12.5973
떙	-12.5973
웜	-12.5973
읔	-12.5973
캉	-12.5973
뭄	-12.5973
죨	-12.5973
낑	-12.5973
촬	-12.7217
ン	-12.7222
밈	-12.7223
슝	-12.7223
텼	-12.7223
찟	-12.7223
촤	-12.7223
뮈	-12.7223
웍	-12.7223
읏	-12.7223
쨍	-12.7223
캘	-12.7223
깸	-12.7223
뉨	-12.7223
믈	-12.7223
븅	-12.7223
뽐	-12.7223
슛	-12.7223
쥴	-12.7223
챦	-12.7223
촐	-12.7223
콰	-12.7223
헥	-12.7223
꿇	-12.7223
옇	-12.7223
팥	-12.7223
꿧	-12.7223
웤	-12.8651
⊙	-12.8651
퀀	-12.8651
盧	-12.8651
갬	-12.8651
깰	-12.8651
■	-12.8652
》	-12.8653
굉	-13.0317
옳	-13.1954
"	-13.2224
눠	-13.2309
곀	-13.2314
췌	-13.2316
빕	-13.2318
텝	-13.4755
슷	-13.4801
뀌	-13.4811
탤	-13.8151
귘	-14.3019
햏	-14.302
챘	-14.3021
짴	-14.3022
뛸	-14.3023
덟	-14.3024
훠	-14.3025
짊	-14.3026
씸	-14.3027
썪	-14.3028
벚	-14.3029
깈	-14.303
괭	-14.3031
흩	-14.3032
헵	-14.3033
쌉	-14.3034
랗	-14.3035
겈	-14.3036
故	-14.3037
쥑	-14.3038
윅	-14.3039
빴	-14.304
땔	-14.3041
🦈	-14.3042
헴	-14.3043
앍	-14.3044
뉜	-14.3045
훑	-14.3046
홥	-14.3047
캄	-14.3048
촛	-14.3049
잴	-14.305
덱	-14.3051
낍	-14.3052
뀜	-14.3053
괞	-14.3054
휠	-14.3055
좔	-14.3056
숟	-14.3057
놧	-14.3058
꺾	-14.3059
횟	-14.306
핥	-14.3061
폄	-14.3062
큽	-14.3063
츤	-14.3064
왘	-14.3065
뀔	-14.3066
휩	-14.3067
옜	-14.3068
쁩	-14.3069
냨	-14.307
콥	-14.3071
촘	-14.3072
뺴	-14.3073
멎	-14.3074
헠	-14.3075
핡	-14.3076
꺽	-14.3077
딪	-14.3078
뵙	-14.3079
릎	-14.308
낡	-14.3081
펏	-14.3082
긁	-14.3083
짘	-14.3084
녔	-14.3085
굵	-14.3086
닠	-14.3087
셸	-14.3088
켠	-14.3089
쥔	-14.309
닳	-14.3091
큘	-14.3092
왼	-14.3093
픕	-14.3094
씻	-14.3095
낰	-14.3096
딨	-14.3097
넋	-14.3098
빚	-14.3099
꽥	-14.31
뭡	-14.3101
뀐	-14.3102
얽	-14.3103
팸	-14.3104
쫒	-14.3105
앓	-14.3106
쨋	-14.3107
땠	-14.3108
텅	-14.3109
멤	-14.311
밟	-14.3111
홧	-14.3112
붉	-14.3113
틋	-14.3114
뿜	-14.3115
뻣	-14.3116
옮	-14.3117
맑	-14.3118
핸	-14.3119
찢	-14.312
엮	-14.3121
팠	-14.3122
쨌	-14.3123
틸	-14.3124
컸	-14.3125
낯	-14.3126
겪	-14.3127
뻤	-14.3128
쏟	-14.3129
빗	-14.313
닙	-14.3131
쫄	-14.3132
딧	-14.3133
왤	-14.3134
샛	-14.3135
꿔	-14.3136
튀	-14.3137
듭	-14.3138
겉	-14.3139
획	-14.314
쁨	-14.3141
됩	-14.3142
늦	-14.3143
볍	-14.3144
찝	-14.3145
랐	-14.3146
깊	-14.3147
떻	-14.3148
렸	-14.3149
렇	-14.315
봤	-14.3151
